/*
 * biases.h
 *
 *  Created on: Apr 9, 2018
 *      Author: Stefan
 */

#ifndef SRC_MLP_COEFFICIENTS_H_
#define SRC_MLP_COEFFICIENTS_H_

#define NOB (42/2)	//Number of biases
#define NOW ((784*16+16*16+16*10)/2)	//Number of weights

u32 biases [NOB] = {0x2FB833B4,0x02D1169F,0x3681F993,0xE685E408,0xFBFFE254,
					0xFE1406E5,0x32CA2102,0x1A840EE5,0x0495090E,0xF15E0123,
					0xFCF7E0C3,0x1A872420,0x0625FACA,0x086A1078,0x16B407BD,
					0xEA250272,0xE984F141,0xE803DE55,0xD2A1CC78,0x114CE5E3,
					0xD94ADD13};

u32 weights [NOW] ={0x0C6EF89B,0xF91FF7FA,0xF63106D7,0xEFAAF400,0xFFE0FC8B,
		0xF59D0481,0xFAB80113,0xED6A0945,0xF259F505,0xFF2B0081,
		0xF7C3021A,0xF603EE43,0xFD920872,0xFE5EFDED,0x036CFB35,
		0xFE4F0074,0x07C804E0,0xFAC7F4CD,0xFF32FA3F,0xFC26F646,
		0x015D06F4,0xFC1B02CE,0xF8A4FF7D,0x0AF6103C,0xF499F55C,
		0x0731F7EA,0xFAFDF554,0x057AFEE3,0x03490437,0xF997FE31,
		0x093BF7B4,0x0ABBFE94,0x037DF970,0x0309FE51,0x0AD90118,
		0xF025FB62,0xF8330068,0xF7C9FC59,0x02D1FBD2,0xFAEF003E,
		0x0814116D,0x0A3D01B1,0x0619F8EA,0x0CB30494,0x01310AA5,
		0xFCA0FD49,0x0C4107C6,0x053E07A2,0xE725F5D1,0xF4FDF6FB,
		0xFC45FC8D,0x008803C7,0x030BF7FA,0x109C0C17,0x03500632,
		0x02C90211,0xFFD5F643,0x0968F9F8,0xF9C8006D,0xF2FC0612,
		0xFE8FFDF1,0x06050E07,0xFB24F22A,0xF34EF8D4,0x050F0111,
		0x046EE842,0xE8B8051F,0x05F1049D,0xFB14FDD4,0x019E0AF8,
		0xF6F102FF,0x00ADF5BC,0xEEDCF773,0xFF73F74B,0x0BE3FA04,
		0xF7C3F980,0xF589FDBF,0xF805095A,0x0A45FCD1,0x02FEFCA2,
		0x017EF9A6,0xF1E9F320,0xFFF9FF59,0x018C03B1,0xF73CFB88,
		0x0245FC30,0xFBC801FD,0x02ACF9CF,0xFA0DEB22,0xFE65F1E1,
		0xF046F6F5,0x03D6F522,0xFBEBEE94,0x00300280,0x06D5FBB4,
		0xF1930218,0x0704F6F4,0xF2FCFAB8,0x03C9F9DE,0x07D70586,
		0xFC670D48,0x0ABA03A0,0x0DE60242,0x03B905ED,0xF57AED85,
		0xEB66F84D,0xFC6905DD,0xF65DFFAB,0x0115F8CF,0x0476FE02,
		0xF2D7E267,0x050B00ED,0xF4BBFC52,0xFCD701C8,0xF9DEF749,
		0x03F0FC29,0xFBF9F746,0xFF4C0319,0xFFBC0182,0xFE67055F,
		0x009AED13,0xFEAF017B,0x003BFA4F,0x11A201BD,0xF5A4F32B,
		0x012B0248,0xFEE1FB48,0xF5E9FF9F,0x006CFC7C,0x061CF48A,
		0x012F0556,0xF522F399,0xF551FE0A,0x0531F2A1,0x137CFC13,
		0x1731098A,0x0440196E,0x0BA3061F,0xF81403B0,0x18DC0152,
		0x01E40828,0xFF08FC3A,0x06E504BF,0x07870257,0x097FF64C,
		0x07EA0224,0x10460F28,0xFD5F0554,0x02F71617,0x087700B2,
		0x113801CC,0xFFDA0839,0xF05FEECE,0x07B9FCE1,0x02AC06BA,
		0xF9860125,0x0C39F9D3,0x076E073C,0x1B2E04D5,0x05E8078F,
		0xE6D6F253,0xEC5DE518,0xFB3C0078,0x065606BE,0x0C3BFDF5,
		0x0EF70447,0x11AA0D11,0xF483EEA7,0xFC5EF6F2,0x13BDF5B9,
		0x1376061B,0x08BA0DE1,0x09EEFF88,0xEE82EFF0,0xF1AFF0D3,
		0xF2BCF87F,0x0493086E,0x0390FAA4,0x08DA0D51,0x12AC10F2,
		0x0188013C,0x01A8FCD3,0x0254F571,0x041808BD,0xF8C702F4,
		0xF3D7FC56,0xF8C3F64F,0xFFC3F4D6,0xFBCAF99A,0xF930FC53,
		0xF694F33C,0xFBC4FFE8,0x0998FEB5,0x0EBC18D7,0x02E6FC33,
		0xF294FF8C,0x08EA069B,0x014002D4,0x11CF02D2,0xF7DE0174,
		0x0444FACB,0x0CBDFA02,0xF12BF6C0,0xEA4CF7E9,0xF63FF8E4,
		0x0745F688,0x0A7918EF,0x0A7C0F4B,0xF84F153A,0xE9BFF638,
		0x0A18F29A,0x0557FA49,0x248C0C47,0x1ECA1A15,0xFC390DD6,
		0xF2EFF36A,0x03C9E963,0xF67207CF,0x0DC7FF01,0x06F709A5,
		0xF6BEF849,0x03D6035E,0x08CB0004,0xFB5309E3,0xF8E90171,
		0xFC66F987,0x20DDFAB8,0x305A2090,0x21FC3714,0xF0BB0D6D,
		0xF484ECA8,0x0C28FC2A,0xFB2E0F72,0xFEBDFEE1,0x069F00FF,
		0x0681F969,0x0AC4F4B1,0x075504E3,0x0FCCFE98,0x0017F650,
		0x180FF669,0x291723FD,0x5CE14BF3,0x437E52A0,0x197528A3,
		0x0DC11463,0x04890656,0xEFBC05AD,0xEF71FAE5,0xFCCFFE61,
		0x055D0F1A,0xFF1DFA6E,0xF8A6FD78,0xEB50EB8B,0xFF2DFF75,
		0xFA2E02B8,0x4259240A,0x6A8A5964,0x2EEA63DC,0x097829E7,
		0x05F3FBA8,0xF7FEFF9C,0xFA83F666,0x0627FFB5,0x0AFBFE27,
		0xED81F7C5,0xF063FF21,0x0009F3FC,0xFC18FA8A,0xF62FF43F,
		0xFBD2EAD6,0x0922FA90,0x111D0328,0x05A30A8D,0xFEF90651,
		0x035BFCFA,0xF82E0247,0x02CB014F,0xFE4D128D,0xF753F8CF,
		0xFA4C023E,0xEAA4FA3C,0xEE55F5DC,0xEF00F530,0xE666EBE5,
		0xFD4EE9F0,0x03C4092A,0x06650C94,0xFB06F113,0xFFE3F74B,
		0x092EF6CE,0x09260005,0x05720839,0xF0ECF810,0xF9EAF861,
		0xF45F01BB,0xECE8EAD0,0x01ABFB76,0x014DF6DA,0xFBBCFC06,
		0xF97AFB3D,0x00FDFCE4,0x0F600C3A,0xFE91F1D3,0xFDFFF38D,
		0x046B0B39,0x09010A86,0xF148F2D6,0xF8DA00B7,0xF650116C,
		0xF696F93E,0x0351FB4C,0xF3D1035A,0xEFA1EFC4,0xF657013D,
		0xFF4EFF3D,0x02D90064,0xFD48054D,0x08980A99,0x1038FFBF,
		0xFF7A0B4F,0x005C012F,0xFBF1F6D2,0xF45DFBCB,0xEFF8F762,
		0x0ABBF364,0x01BBFB71,0xFEC0F7F6,0x0629FC7A,0x04150C5F,
		0xF8710A37,0x054B036F,0x151CFF38,0xFC9C0D30,0xFD2DFA8B,
		0x0B2E045F,0x01AF0C3E,0xFA46FAF8,0xFA0C002C,0xECABF661,
		0xF7BDF867,0x028FF890,0xFB5CF6DD,0xFD1AFE5E,0x0DB5FCAB,
		0x01B60770,0x02D30491,0x092D02B2,0x0A5E0FA9,0xF9EA0077,
		0xFFF41087,0x01080C7E,0x091D084D,0xF581FD28,0x0040F635,
		0xEEFBF20C,0xF38FFEF3,0x09600143,0xFB530094,0x0B760E79,
		0xEDF3FBA4,0xF6AA0342,0xEDF2036F,0xF9680EF5,0x0F2DF328,
		0x069DF5E9,0xFC5BF96C,0xFA55FCB5,0xFA1D04DB,0x041CF37A,
		0x004D0823,0xFD1DF2BA,0xF9BDFB0C,0x0704FF17,0xF571EEA0,
		0x007CFE68,0x0D410464,0xFD2B028A,0x04BAF3F4,0xF717FFDF,
		0xFB69EEA6,0xEAE7F5F9,0x0110F7F0,0x0A8BF946,0x04260678,
		0xF112F7B1,0x12A6F682,0xFF5C067B,0x03F407B5,0x0995F852,
		0x028EFD81,0xF558FC27,0xFA820318,0xFF8EF45C,0x011E04CA,
		0x079707EF,0xF686FD5F,0x016CF076,0x0B9E03C7,0x017705AD,
		0x0325FF0F,0x02320898,0x08B20321,0x07FCFD4F,0x05E404A6,
		0xFB9B087D,0xF2A200E3,0x030CF291,0x05C2F7DA,0xFD4A0084,
		0xFF7D0211,0xF2F1F236,0x04840210,0x0A6FFBDA,0x011BF299,
		0x0139FF3A,0x08C6FACD,0x03A2FB27,0x01B100C3,0xF84B022E,
		0xF0990FC2,0xFB430DF7,0xFA2AFF14,0x0B0BFC25,0xFA32F509,
		0x004EF0D9,0x04BFFDFF,0x08EFFC24,0x06E1FB63,0x05E303B4,
		0x067B00D1,0xF96CFE1D,0xFE86041B,0x04F500F5,0xF8A0FA25,
		0xF6F1FC45,0x04FF13AB,0x05C8FDF0,0xF864F53F,0xF56AFFD4,
		0x07A6FBDA,0x01280881,0x02FC0215,0xFDF40138,0xF015FB90,
		0x0A36FBBC,0x00F5FB5C,0xFD10FFFF,0xF6100511,0xF161F7F4,
		0x0B8DFBAC,0xF34002A5,0x02450907,0xF571FC2B,0x04C5F369,
		0x0C58F6E9,0xFB040453,0x03CF096E,0x0539FD66,0x14F40A49,
		0xE6F90E63,0x072A0EEE,0xF625F7BF,0x0A9BF9C3,0x0129088A,
		0x048DFE4C,0xFFA20AAE,0x00310DC4,0xFD08FBE4,0xFDE710E7,
		0xFDAA0447,0x0710017A,0x1247FB1E,0x17380FE6,0x041B0EBC,
		0x003B0138,0x0207FCCD,0x088DF7B4,0x1021FB05,0x0AD0FD89,
		0x017E031F,0x0CFB1036,0x02861096,0xEF36FD80,0xED02FB71,
		0x0998EC4E,0xFFCC024B,0x0540032D,0x07880208,0x09220925,
		0xFEBE050A,0x02ACF791,0xF8D6F6B1,0xF14DFE6C,0x01100FBF,
		0x07A50327,0x0A36015F,0x076F03C5,0x0527F836,0x11BFFD1A,
		0xFED50D41,0x11031149,0x0B4D102F,0x015F0157,0x03390D08,
		0x04890438,0xF66DF0C5,0xEAE0EC0B,0x0486F514,0xF7D8FFC0,
		0x1AAA0EDD,0x02D60598,0xF7C0E907,0x00A5FFF8,0x01A0FF8B,
		0x10ECFA62,0x0FCF1806,0xF0C50C20,0x021DF9FA,0xFB42EF0F,
		0x119AF544,0xE944F7A8,0xFADF0036,0x17BEFCD9,0x16D524DF,
		0xEFF90B7C,0xE71FE5E4,0xF2B5F355,0xFBBAFD07,0xF283FB6F,
		0x0782FF0C,0xF69D098E,0x0248EBB6,0xF2120709,0xFA02FC0A,
		0x0393F770,0x0D3E10DF,0x1C280642,0x06262192,0xDE96DCEA,
		0xE970E548,0xDDB8D41A,0xDB11EFFD,0xE2FDF690,0x114F02F0,
		0x03E10373,0x0274FAD7,0xF21004FF,0xF11A01E8,0x01CB062E,
		0xFC8C01A8,0x11BD1402,0xF36C0153,0xEB2FD4C8,0xE921FB52,
		0xE438E0A8,0xD408E471,0xF41CEDF1,0xF7090E88,0x08FA0423,
		0xF20AFB43,0x0C93FC5B,0xFB0EFD1A,0x12D7FEE3,0x0EDC122E,
		0x016E07D6,0xFB0A018E,0xE32FE1B1,0xEEFCF149,0xE48EF685,
		0xEB67F858,0x01E0ECDE,0xFF5EF612,0xFD1FFCB7,0xF55EF300,
		0x0B1D0350,0x0E6E0AE6,0x0D8009B2,0x124A01C9,0xFA4908EA,
		0x02F00D88,0xE179FACA,0xE701E725,0x0132E833,0xF862E79B,
		0x0380FCF1,0xFFA20111,0x05C10AE2,0x03EA0290,0x09D8F8E4,
		0x0EC50396,0x0CBA1D61,0x0E82FE7B,0xED690D10,0xE4CCF44C,
		0xE05FECDF,0xF49CEABF,0x0070ED80,0x0514FE87,0x05281433,
		0xFC700CB1,0x075CFF21,0x028C058A,0x0CE2F84B,0x04130AD0,
		0x0389149F,0xFC0C1628,0xF1810B31,0xEA78F724,0xEB88F25A,
		0xF598EA6F,0xF639F837,0x0893FE6E,0x0C290E4D,0xEAEDF9BF,
		0xF175F823,0xEC77FE2E,0x01F60F9A,0x019BFC0F,0x0E46FCF1,
		0x04020023,0xFD1201DE,0xF0F4F085,0xEDA1F1AE,0xFD43EB9B,
		0xFA1EF1FA,0x125906AE,0x0C940DFB,0xF9E0072D,0xF7D7F4F4,
		0xFB080282,0x06700169,0xFEDFFBD4,0xF5AAF891,0xFFDE0180,
		0xF797F941,0xE74FF695,0xE770EC81,0xF38FED51,0x18CE0AB4,
		0x01F2FD0D,0x0C7005A4,0xFC17F86C,0x011D03DA,0xF71F009E,
		0xF90BFE76,0xFB2EF876,0xFA3C007D,0xF041EF3A,0xE824F26D,
		0xE419D98B,0xE099E0B9,0x0C9E04FA,0x067AF556,0x01A40D59,
		0x0D770A11,0x02E806D8,0x0035047F,0x019EFEF6,0x0B050780,
		0xF614F5C9,0x0C46FEBF,0xF14CF628,0xF1B7FAFE,0xEA62F205,
		0x04C4F972,0x0430FE3C,0x01C81118,0xFCC9060B,0x04E5F592,
		0xFE53FED2,0xFC8000FA,0x047502D9,0x0E26F960,0xFC26FCC7,
		0xFA33F411,0x00DBFEDF,0x0A930685,0x0834F8D5,0x10EA055A,
		0xFEC20652,0xF8C503E6,0xF4300D66,0x0080037D,0xF473FB80,
		0x04B9F568,0x01760691,0xFF4D07A2,0x0A0DFE34,0xFAEFE464,
		0xF23704E7,0x0C560178,0x060B0836,0x0D5915A5,0xFEE3FC9D,
		0x0BBB0AED,0x04730DB2,0x03EC117D,0x00670935,0x02AFF625,
		0xF9F1F84A,0xFA60023E,0xFE99F0C4,0x0590F87F,0xF33E06AE,
		0x0F80F5A3,0x04591017,0x052808DB,0xFDE20AF4,0xFDA207C7,
		0x052B0788,0xFBC20E2F,0x022F05B1,0xFCFEF7E2,0x00C3FE56,
		0xF72E02EF,0xF62C023C,0xF641040D,0x08F0FA52,0x0A120556,
		0xFFA2F88C,0x09AF0282,0x0B550E05,0xF4BAFB54,0xF1C6F916,
		0x0B8410D5,0x02FBFFBB,0xF83E09C6,0x0E75F8B9,0x07FBF5A1,
		0xFE32F2ED,0x097803B9,0x02BE0848,0x1A820A50,0x0BC2F722,
		0x0A9DF6C6,0x0C98FD73,0x0A92FE82,0x1062FD28,0x0997F1DA,
		0xF65B09E0,0x0FD30BB6,0xF534F782,0xFF3008AD,0x0480F13A,
		0x027FFDF7,0x0873FCCF,0x0903FFAF,0x102F0CD5,0x0BB902D3,
		0x0BE80CA2,0x071320FC,0x08C3FE6C,0xF3DE015B,0x05AE0797,
		0x03E5F6E1,0x09FF03D9,0xFF64003B,0xFE2AFB11,0x023CFEBF,
		0xF5A003FF,0x106C145E,0xF7BC0562,0xF8EA0175,0xF95C018A,
		0x08BDF66D,0xFC04F980,0xF7F9FB1D,0xFDC6F55D,0xF9120D02,
		0x07A40BF9,0x070A0ACB,0x0273F84C,0xFDB3FEFF,0xF8900203,
		0x0755FD61,0xFFD8F1E1,0xFF04F4B2,0xFB9C06F9,0x020FF8D6,
		0x0B770822,0x017E07AD,0x0817F271,0xFD8C09DE,0xFCEE06AA,
		0x0A3B0D6D,0x0787FAD8,0xF7A60FE0,0x00D80903,0x02D30F5A,
		0x0177FCB1,0xFB3D072C,0xF89DFF43,0xF949F6B7,0xF5E1FC54,
		0x05F7FD72,0x008909FB,0xEEFA04ED,0xFA4FF78B,0xF3D7F39D,
		0xF86605B9,0xF5F7F61F,0x134EFDED,0xFC81EDBA,0xFA4EFFC4,
		0xFCEBF78C,0xFDB0FEE5,0x0F15FFEC,0x043E0F18,0x0947FFB7,
		0x0254FE5D,0x02660448,0x015B0453,0xFCEB06F1,0xF25702FE,
		0x09740064,0x0C3D06A1,0xF18BF8AA,0x021E00D4,0xFD7C00D9,
		0x04C6F97A,0xFD7C076A,0x0A1C02FF,0x02F5F429,0x05C80852,
		0x00BB0D13,0x0E49F77F,0x00060555,0xF57F0831,0xFA33FA33,
		0x0A31FAB1,0xFB010561,0xF227F0B3,0xF5ECFF69,0x04040A37,
		0x0DF1131E,0x009D09E5,0x03EDFB72,0x0B40F953,0x0290FB26,
		0x079BF3F2,0x081E0E0F,0x0D8F03B6,0xFFFEFDA3,0xF6A90BA4,
		0x074DEF7A,0x053B0ED1,0x01A3050A,0x0895079D,0x087DFDE7,
		0x03A409A1,0xFBE71020,0x03100722,0x013304C4,0xEA31F86D,
		0x083D0142,0x0841FB26,0x030300BF,0x05B70016,0x0F3B0F2A,
		0x07080EC9,0xFC1506F2,0x1EA315BD,0x0D0A0AAF,0x0B6608F0,
		0x063BFFE5,0x06740A0D,0x00D6FC57,0xF511FF90,0xFF2E0AE2,
		0x04CF02A4,0xFD590DD6,0x0D560574,0x030AFC11,0x0D36076A,
		0x05B7028A,0xFB81FFEF,0x0E30FF17,0x0EBC0834,0x1188071A,
		0x075506E8,0x071A1055,0x0FF90008,0x056A0971,0xFADC0CE8,
		0xFE861099,0x0622FF64,0xFE280632,0x056FFE5D,0x01D602BF,
		0x0269F837,0xF2D5026C,0x157E047E,0x1CBF176D,0x0AEF039A,
		0xF26D05B3,0xFF4AFB92,0x0071FE9C,0xFBE701B8,0xFD8CFDF2,
		0x0CF3FD9A,0xFD640734,0xFBE6FDC4,0xF8250127,0x0AA807A8,
		0x092DFE43,0x1873084D,0x04670E62,0x073D16B8,0x078FFEE6,
		0xF8A807F9,0x0186F262,0xF7D9FBAA,0xFD1CFD11,0xFE77F2AA,
		0xF2E7F999,0xF137F81D,0xF70CEAEC,0x0E4D03C5,0xFBE20E9E,
		0x1BAD1573,0x1A3E00B9,0x1B01104C,0xF35AFFB3,0x0486F52D,
		0x008702BD,0xFCE80EFB,0xFDC30184,0xF7DBF592,0xFEF4F5B8,
		0xF525F67A,0xEE71DBC5,0x0638F6DE,0xFD3211FF,0x16E60B78,
		0x20ADFD41,0x061701BB,0x062407E3,0xFBB1036E,0x104C060C,
		0x0E010726,0xF546FA2C,0xF7D3FE97,0xF391F3C3,0x03C80015,
		0xE28FE2B1,0x089EFEDB,0x10470B8F,0x054A1BE6,0xFC741882,
		0x00B105A0,0xFB9A0738,0xFB5D041C,0x08210268,0xFBD5F62A,
		0x01940EE7,0x1D900529,0x12DA06C5,0xF94AF93F,0xEC2EFC25,
		0x0860F6FB,0x0F9F0A11,0x01810CD4,0x0661FC7B,0xFE97027E,
		0x0505FD84,0xFFA30B9F,0xF0FD0DD3,0x071409F1,0x0C250BCB,
		0x0C89027D,0x1320FEBE,0x089B097C,0xF08BF68A,0xF957EBCB,
		0x0C4A03A2,0xF7040072,0xF608FA26,0xFE34F782,0xFFDAFF09,
		0x04ACFA85,0x0406FDE2,0x0A03023D,0x06BC04A5,0x124D136C,
		0x07E2F004,0x04F1FE0B,0x09A8F9AC,0xFFA5E98F,0x12970A90,
		0x074EF921,0xF082EC98,0xF9D3FF9C,0x0329F314,0xEFE903A8,
		0xF740043D,0x01D404E8,0x136F0F0A,0x0672033C,0x020E0492,
		0xF961F03A,0xF490EF70,0x1C08DFE1,0xFBAA1B02,0xEE1C00F8,
		0xE0C4F6A2,0xFEC3EE57,0xFDEB0512,0xF4B1F728,0xFE3C0990,
		0x025304EC,0xFA3AFD32,0xF47C0D0A,0xF767FF32,0x00421031,
		0xF54AE3A4,0x08D6FBCD,0x06660C64,0x03D0F393,0xF474F894,
		0xFC15F728,0xEA27F092,0x0C58021C,0x0517089E,0x1184F97F,
		0x09B906A2,0xFDB7F9D8,0x0886FBF9,0xEF4E082D,0xF054DCD7,
		0x07BB0F60,0xF8630C22,0x051AF6FB,0xFA1208EA,0xF8EAEC40,
		0x0B42F9DA,0x0B0209CF,0x0B990195,0x02B2F9BF,0x05810ECE,
		0x09BE1D7B,0x2190FEEA,0xEE94FE18,0xFE13FF3F,0x20142354,
		0x0C0C061C,0x0F050A9A,0x07B3168F,0x014F0ADC,0xF7D9FCBD,
		0x0EA2001E,0xF820FE66,0x00CDFF19,0x0D9F0500,0x0AB60D13,
		0x0954214B,0xF90EFF02,0x07B3EA32,0x146914C0,0x162217E3,
		0x19080D7A,0x004A029D,0x0164FEEB,0xF27F089D,0xFCE50347,
		0xFF280786,0x023EF7FF,0x124AFE10,0x08A207EE,0x00E7F811,
		0xF750E4D4,0x0C3DFE68,0xFF65F333,0x0A2303BA,0xF9E90E27,
		0x0C6A19AA,0x00710F6A,0x082DFDDC,0x0D2EFB6B,0x063DFB08,
		0x0A800481,0x1C500609,0x0E3E0A1C,0xFFF8F760,0x0FDDF70F,
		0x08CA0AE9,0xFD50F65C,0xFA1C0308,0x07DD0271,0x01EE0021,
		0x07990D0A,0xF2E00485,0x0902FEC6,0x07DDFAE5,0x0320FD4D,
		0x1A320EE9,0x0430FE1E,0x08A40237,0x150F106F,0xF5E0FE7E,
		0xF79A0A43,0xFFE8F9C6,0xFA0E0A60,0xFA57069E,0xFC22FEFB,
		0xF375FF04,0xFE9B0094,0xF25D02CC,0x0B8CFE8F,0x0477F8D5,
		0x006D00B8,0x12070264,0x12F9F90D,0x18031594,0xFBB90DCD,
		0x0C01048D,0x012804D2,0xFB69FDAE,0xFEB0070A,0xF8E408F1,
		0x0505F0C4,0xFB54F366,0x0217FF9F,0x0723FD41,0x105F10DD,
		0x0479045C,0x07EF1146,0x0F5C15CC,0xF93114F2,0x10AEFD6F,
		0xFCFFFAE9,0xFC980537,0x05FEFD44,0xF9D20B25,0xF5A70AD5,
		0x124C07BA,0x07E908AD,0x05C905C8,0x082C0180,0xF59DFEAD,
		0xF684FEEA,0x0FA008C6,0x09F8FC54,0xF9B004B9,0xFDC4136A,
		0x0409088F,0x0E4DFCD0,0x02FF0319,0xFE3AED56,0x02600537,
		0xF8D3106E,0x080B03A0,0x0164F4AC,0xF177F02D,0xFB7F028F,
		0xF80CF227,0xF5DD0D51,0xFFA80586,0x0C11FF5D,0xFA6D04AA,
		0xFF980CF0,0x0169F1E8,0xFA1BFEC4,0x04D7061B,0xFC6FFFDB,
		0xFFF10404,0xFF10F8CC,0xFB7CF61D,0x05B2FABF,0x003E024B,
		0xFBCEFA7B,0x0251F895,0xF7B00631,0xF64603F6,0x0C390A58,
		0x0264F294,0xFE7F05BD,0x01F30AF8,0xFADBEAD9,0x0555F875,
		0x0207FED9,0x0270053B,0x02D9F592,0xFBEF01F5,0x06DC0B5D,
		0x060309EA,0xF7C0FC15,0x092D007F,0xFEE90C98,0x01A00A0C,
		0x04381149,0x01800A35,0x028AF565,0xFDD4F838,0x0319FB76,
		0xF9CDFCB6,0x02250923,0xFFA4EDEE,0x0130FF51,0x047D02C8,
		0xF2E9FFE1,0x0A15F29E,0xEFCFF48C,0xFBCE0651,0xF951F258,
		0x00F6FC90,0xF3E0F478,0xFD800403,0xFCA60100,0x0A14FDE3,
		0xFE380108,0x025D0319,0xF91202F9,0x0A4210AB,0xF6F5129C,
		0xFB53FE1E,0x0DD8FB45,0x02D40966,0x048E0B8E,0x062F02FB,
		0x013F01AA,0x00C2FBC4,0x1852F836,0x0B8F1366,0x0B9B0677,
		0x0AB9014C,0xFA4C136F,0x07C71006,0x0BD7FF4D,0x16E10C4A,
		0xF6BFFE3C,0x00A70240,0x0D150477,0xF1A8FE5B,0x0BA0F953,
		0xF7F1FDEF,0x0F3A0C15,0x122B196A,0x0E6F123E,0xFAAB126E,
		0x01A70A7F,0x0C0C0886,0x0C4602E2,0xFEDA0ACA,0x01C40D1E,
		0xF38AFA5F,0xFDD0F37E,0xEE3B0052,0xFAAE079E,0x09181A5C,
		0x133F0E8A,0x089114E9,0xF4650AC8,0x0C5605F5,0x02D00214,
		0x13B508A5,0x07E7FECE,0xFC4A0299,0xF4E41605,0x07A0FC50,
		0xF794FE8D,0xEF3EF054,0xFDA7FFE3,0x0A29FD65,0x18301375,
		0x101309FA,0xF564FCD2,0x0CD3F6C3,0xF8E018E1,0xFC2D092C,
		0xF4120CAC,0x0315F47D,0x02740597,0x0478F7DA,0x0A000DCD,
		0xF9760AAA,0x0A3C0A4B,0x00B90005,0x0B1D042B,0xEC8E06F7,
		0x0875036B,0x0E19FAD9,0x04E8036F,0x075FFB3B,0x04E80474,
		0x02E3FEDF,0xFC60F511,0x08AD070F,0xFA2B0F42,0xEE300165,
		0xFBF90763,0xFE8CF3E9,0x09D5F6AB,0xE91CFE06,0x09F1FB81,
		0x07390048,0xF088F179,0xFB24F4F6,0xFA95FA7C,0xF5F2F825,
		0x0D0DF0CF,0xFBB90553,0x0001FF76,0xF12DF935,0xF764FEB1,
		0xF8DDEC54,0xF802FF4D,0xEAA3F734,0xFE2CF213,0x086EF7C5,
		0xEB9CFB6C,0xFEEFE5C2,0xEFE7EC8B,0xEB2EF52F,0xFE16E786,
		0xF752047E,0xF6791083,0xFF46F807,0xE9B9F8CE,0xF29FF8F3,
		0xF44100B8,0xEE000172,0xDB15E88E,0x0AA9EC70,0xEBF701BE,
		0xE37BF163,0xE92EF4D6,0xF7BBF2C1,0xF8E3F4B5,0xF4D9FCCC,
		0xFC101009,0xF4ECEBFE,0xF7AAF333,0xEF720110,0xFE49037A,
		0xF72AFA3A,0xD0B5DED3,0x2374FFD0,0xFA63FD7A,0xF01BF448,
		0xFED2083C,0xF25BF855,0xFAAC044B,0x04EBF9A4,0x02F010AB,
		0xFD7A00AA,0xF168EE9A,0xFB67EFD9,0xEA42F4B0,0xFCB7EFA9,
		0xFFC8F1AD,0x299C1F4D,0xFB540B26,0x04A8FE8E,0x07F3FA14,
		0xFAB6F2AF,0x01690415,0xF6F7FA6F,0x08DA0E76,0xFFECFEE6,
		0xFC6A0751,0x0B8703F4,0x0FFD00E4,0x07CDFC9A,0x136C075E,
		0x29262AE0,0x09B3190B,0x18500D9C,0x0C01128D,0xFB88FEF6,
		0xF97300CA,0x0200FEB2,0xFC0E053A,0x0F580D22,0xFA450507,
		0x047D0EBC,0xF75D099E,0x06EF0551,0x1E78FE4A,0x1B1427D2,
		0x0BF10F61,0x015C1824,0x0EF80739,0xF32403ED,0xFCA2F02E,
		0xFE2FF28D,0xFE99F55E,0x0EF3F72F,0x00E014FF,0xFF9501EF,
		0x0A570A21,0x0A32F493,0x24151949,0x093A1E1A,0x10A51E49,
		0x0B6FFFC7,0x11E10C7C,0xF537FFF8,0xF86B04B1,0xF9FDF77C,
		0xFC35FA2E,0x0BAB008F,0xF1280182,0xF4B8054E,0x008504B7,
		0x083D0670,0x218A2081,0x08740CCA,0xFDB31526,0xF493FD19,
		0xFDE60C75,0x034B006A,0xF6DB0C59,0x0867FF24,0x00D00A74,
		0xFD0EFC7B,0x047CFC04,0x0FCCFBA0,0x0B7C0EC7,0x149CFCA1,
		0x14CC069C,0x1249170F,0xF35E08F9,0xFF4BF90C,0x0EA5F5A7,
		0xF35200EF,0xF8E0F5EB,0xF8690825,0x05D5076F,0x05AD03EC,
		0xF9B01B36,0x04FD097D,0x1D701756,0x0A3F1243,0x0ACD0D6F,
		0x082C0DED,0xF38901DB,0x0A2DE3DA,0x092A0642,0x0E4508FB,
		0x0284F896,0xF433F093,0xFE68FB43,0x0990F6AA,0x03A606A7,
		0xFE46FEEA,0x13EE0780,0x0683103E,0xF9881033,0xFF54F9FE,
		0xF6B00176,0x09F5FDC5,0x07F60C64,0x05990A5E,0x0D67F8E5,
		0xF84FFCF3,0xF8E20287,0x0C88FDF1,0xFE46023A,0x1033FBD9,
		0xFE6C0021,0xFF33FA97,0xF1F1E952,0x0146FE6E,0x03FF004D,
		0x02FA02B1,0x007E0AC3,0x109FF82D,0xFD1F0937,0x07A8FE43,
		0xF9E612E9,0x04C4FB6B,0xFA800D8C,0x026806AB,0xF51FF861,
		0xE7E6ECA3,0x03ABFD48,0x003E0712,0x09E9F881,0x02AD0A67,
		0xFCC0020D,0x0A47094A,0xFEDE0104,0xF90CF8CC,0x06F9FE9F,
		0x022503E7,0xEC8504CF,0xEFEBF900,0xEA69F0AF,0xED9C01FF,
		0xFA87F091,0xF9F0F168,0x050207B1,0x0A4AFAF0,0x02A700DB,
		0x0A110236,0x0555095C,0xFF770C5E,0xFB92FE9A,0xF6AA0AF6,
		0xFD200A9D,0xEFC5FB15,0xF9AD0A9A,0x0177F4A5,0xFB0DF661,
		0x0233EE1E,0x01D2F606,0x03DB05C1,0x0BA90466,0xF9CC09A9,
		0x087E06F6,0x05550437,0xFF6303AE,0x01C1FE53,0xFBAA0364,
		0x16210D0A,0x0372F3D9,0x0F210C8F,0x0E6FFEDD,0xFBCA0986,
		0xFC9C05C1,0xF332F76D,0xFD5803EB,0x0650F9E9,0xF99300AC,
		0xF189FA65,0x00F6FD9C,0x06270AA0,0x0876FEBF,0xFDCDFE00,
		0x04F806FE,0xFBEC0B4C,0xF86FFB8C,0x010005B2,0xFF29FB71,
		0xFCB1FC79,0x0037032F,0x114AF466,0xFEC40289,0xF5681434,
		0xFD68FFF5,0xFE9D056B,0xF5790075,0xF9C102F0,0x0140FEF9,
		0x0D70050F,0x0B20F937,0xFD52006A,0xF5D9FA8E,0x02EDFBD2,
		0xF5A108BD,0xF20B0324,0x01620267,0x07E4F1E0,0xFA2B0902,
		0x04820081,0x0ABEF65C,0x05EEF5EA,0x04770F58,0x044CF953,
		0xFFBB03B9,0xED20F728,0x06F70008,0xF8C6F613,0x0411F99C,
		0xF53EF144,0x005A0427,0x064D0BA5,0xF8640567,0x0369F69C,
		0x17C21558,0xF79E09B2,0x074C010B,0xF35AF9B8,0xF887F2EB,
		0xF90800D6,0xF170F961,0x064B0295,0xEFC9041E,0x01DC0715,
		0x069409C5,0x0A14FB8C,0xF1B512B2,0x0A2402D3,0xF310F2DF,
		0x04F2005E,0xF55804B4,0x0522FA29,0x0A660A13,0x0365F2CC,
		0x0338FBF8,0x0354FFF4,0x050A0945,0xFB12F04D,0x025002D9,
		0x00D90977,0x059F02FE,0xF9EDF430,0xEE7F0070,0xF56E0792,
		0xF4A90A38,0xFDA3FCCF,0x017004A0,0xF011F296,0xF2FFFF66,
		0x08BE0A1B,0xFB7BFC5B,0x038AF531,0xF68A0DB8,0x03A4F82A,
		0xF21B04CD,0x030B012D,0xFF1F0051,0x0D8DE658,0x0025F95A,
		0x06BCFFB0,0xF481FFE2,0x05ADF7B3,0x04C90715,0x05F70D42,
		0x1204FC1D,0x0C2C023A,0xF61C08A6,0xFD31F7C9,0x08A5FB4A,
		0x04DCEADB,0xFD40FDDB,0xFCA0019F,0xF782F975,0x0C77FFAD,
		0x04EC0B69,0xFD8BFE55,0xF7E402E6,0x02B3FA94,0x0B02011F,
		0x12D506B4,0xF47D15F4,0xFE0AFD8C,0xF8820D47,0x0029FA9C,
		0x07DDFB15,0x010F07F1,0x0960F79D,0xF4E8F940,0xFCC504C4,
		0x033CF549,0xFD9AF3A2,0x0605FB09,0x09800500,0x074902C5,
		0x08171570,0x0245F23E,0x018C0736,0x0489EC8F,0x106E0BD5,
		0xF9F9F72A,0x076411AE,0x04070282,0xFE800D5C,0xFC00F6F1,
		0x00C4F690,0x1439FF82,0x0AB0FE1A,0x1FA10ADE,0x0B8409DD,
		0x0517FF60,0x0856FB10,0x0348FB32,0xFAFF122F,0xFF4AFBD6,
		0xFE6FF95A,0xF26E0DB0,0xFB340A32,0x03ED0347,0x06C406A1,
		0xFED40C38,0xF75E0EBC,0x1239FF42,0x08FC0513,0x0DC8FF70,
		0xFAE6FF69,0x1208035C,0x0BC6F732,0xF56F14AC,0x05300A77,
		0xEFB7F58D,0x06FE0E99,0x061FF5F6,0x0C9F0513,0x12920ACC,
		0x0EA20C86,0x0ADF0174,0xF602149A,0xF0FEFDA1,0x02B1F898,
		0x013A0586,0xF656120C,0xF9A102A7,0xFC1AFE4D,0x02EEFFBA,
		0x0318F4CB,0x0A52FA61,0xFF230437,0x18CF0811,0x1A32FF22,
		0x10F40CE1,0xF7160532,0x0398F7F5,0xF11D02C1,0x145FFA17,
		0x0375FF39,0xFA30FA1D,0xF9060310,0xEF2EE5DC,0xFE3505B1,
		0xF565FC79,0x0F23FFA0,0x0C28FC08,0x15A813E3,0x1799FDEA,
		0xFE4B0825,0xFDE205FD,0xFD9EFD94,0x10210158,0x088801D9,
		0x0C6FFA62,0x09850579,0x0BC51500,0x1D1E1E62,0x1476258A,
		0x153713FE,0x0B540EA3,0x08E20CD6,0x12930B00,0x084111D6,
		0xFDED0070,0x0193FE16,0xFDCE0A68,0x0F790E10,0x1E331B9B,
		0x316E23AC,0x221126FD,0x340F27D3,0x16BB20CA,0x12861A7D,
		0x0A3810FA,0x006C0CBE,0x0C941570,0xFF0102CA,0xF4BFFE6B,
		0x0B2EF6C0,0xFD57FF4B,0x2342135E,0x2029261E,0x1A9220BC,
		0x00952607,0x0460F33B,0xFEBE08DD,0x04AC1976,0x02F5110D,
		0xFDB6FF5E,0xFE040770,0x0071E8D0,0xF5810733,0xFB59F62B,
		0x0748004E,0x14811957,0x06761A34,0xFA420BBF,0xFB150673,
		0x00AEF0DC,0xFDAF0871,0x048BF5DA,0x0433F3FD,0x07661079,
		0xFBC7FB9F,0xFA2FE8BD,0x10B2FA70,0x12670CE0,0xFBD9FF14,
		0x0C86010D,0xFF49F3C3,0xF9ECF69B,0xF3B0F892,0xEB57019A,
		0xF42A02AD,0x030C03AF,0x10410D22,0x060E01AB,0xEFCCF2D5,
		0xEB7BE9D6,0x058B088D,0x119A01C9,0xFBB3FB43,0x05BF094A,
		0xF801FA0E,0xF58008B7,0xEF0EF911,0xF6F5F7FC,0x013EF86C,
		0x00E7F378,0xFA230043,0x00CAFDCD,0xF2F607C6,0xE1B2DCE8,
		0x0917F912,0x053CFC64,0xFA9BFBAC,0xFBC50190,0xF296FFDC,
		0xF5E5FAFC,0xEFACF0A5,0x0090EE54,0xED34FB92,0x134D02CD,
		0x028F085D,0x0DFCFC1C,0xFC12FB53,0xD827E4A5,0xF760F231,
		0xFF9D05EC,0xFC5908B7,0xF8EFF764,0xF5AAFDC4,0xF880FE5E,
		0xFC3CFE49,0xEF44E0A4,0xFE35010B,0xF1B901F0,0x05D30655,
		0xFE8601AF,0xDD95F816,0xFAF9DDD3,0xFD74FEE5,0x0877FF1C,
		0xF200FC06,0xFD66ED10,0xFB61F36D,0xE99AF30D,0xF1C0F1A6,
		0xF0AEF941,0xF800F423,0xF8D2011E,0x02ED0508,0xF5A3F3C5,
		0xEBB7FA7E,0xFD7CE570,0xFBECFFF6,0xF580FAC9,0xF4650151,
		0x0903ECE8,0xED08F872,0xEEDBEB2A,0xDD0CF7D4,0xF809FE46,
		0xF992F927,0xF0F7F641,0xF1AD02A3,0xFA81F70F,0xE574F566,
		0x0898EC38,0x0BF8F2B9,0x09E90584,0xF6ABF20E,0xEEC2F8EB,
		0x0DC0F833,0xF649026C,0xF03BF38D,0xF6180410,0xFAB8FD59,
		0xF628FEC9,0xF5CCF402,0x09C9FAF7,0xE2A0E3BF,0xFB4FFE91,
		0x032406C8,0xFD58F76A,0x05BE01F8,0x02D3F0B2,0xFDA2FDA8,
		0xF377F530,0xFAB4F1C3,0x02B1FD64,0x0384F5C6,0xFD1C0678,
		0xED1DF68C,0xF435F4F0,0xF198EC1A,0xFC56F233,0xF898FB2C,
		0x036102BA,0x131C0750,0xFC3CF8C3,0x0890F9FA,0x04A8F99B,
		0x15C5FC26,0x0EF90240,0x069B0861,0x14BD0AE2,0x05ED00F3,
		0xF7E1F8DD,0x0B36FBB6,0xF45EEF8C,0x0BACEE5A,0xFC46F437,
		0x0987FF6B,0x0885049D,0x0EA20ACF,0x10E70A00,0x0A5B13D8,
		0x081809D2,0x1B6015FF,0x1E560B73,0x0B8E01C3,0x02F70941,
		0x0EBAF6F2,0x0170F81C,0x004606ED,0x06EA120E,0xFEFA006A,
		0xFFC90623,0x06A10EAD,0x1CB615CF,0x02A21EB0,0x097B1A61,
		0x098E118A,0x11A4FAE3,0x10170D84,0x07731597,0xF9D503E4,
		0x0233FF3B,0x00A6F984,0xF5BBFC7F,0x0A640A0F,0x04690FFA,
		0x08EAF4DD,0xFB52F8AD,0x0BD0FC2A,0xFEA600A6,0xF572FEB8,
		0xFD58FFCE,0xFA5DFC4A,0x0667FAAE,0xF6F512AC,0x1420FC5C,
		0xF2ACF2AF,0x01CA19F0,0xF9DF0551,0x03ADFD2B,0x073EFF9E,
		0x056F03C3,0x0BF7F4EE,0x025CFDFD,0xFB5B0557,0xF500FEE3,
		0xFDE70092,0xFCEA0234,0xF35A068E,0xFB0904ED,0xFBF50088,
		0x0C2FFABF,0xFF6CF75B,0xF5780028,0xF23BF989,0xF8B6F02D,
		0xFDA5FB96,0x07340459,0x03090D7E,0xFCC5FD74,0x01F10F13,
		0x040CFD04,0x07E5FE54,0x0ADAEFEA,0xF1BE0FFE,0xFCDD0855,
		0x04D206F1,0xF4E1057C,0xFD79FE92,0xFE8CF988,0xF954F819,
		0xEEAA0413,0xFA80036A,0x018DF1AB,0x02200BDC,0xF751FFC3,
		0x02FD0CB7,0xFC41FAD8,0xFEC4FC78,0xF89BF533,0x05A7F9A5,
		0x004B0895,0xF038F2C8,0xFA3DF58D,0xF959EA19,0xF430F151,
		0xFD2CF29E,0xED3DEFC8,0xEF17FE5E,0xF493F3E1,0xF22EFDFA,
		0xFBF0F065,0xF6F90E84,0x1158ED7E,0xFD76FDE5,0x0AFF0160,
		0xF7BEFC53,0xE9A7EFA6,0xF05EE5D3,0xE065E89B,0xECD0EC9F,
		0xFBCBE780,0xFEA2F8CC,0xF625F1A6,0xF72DF7E4,0xFD11FD76,
		0x01F40AF3,0xF3DEFBB6,0xFA0A0C14,0xF9F600B8,0xF564F9BD,
		0xF166EF65,0xF2AFE5E5,0xFB6AF18B,0xF01FEEF1,0xF451EC0E,
		0xF98EE869,0xF390F297,0x044F03E1,0x0281FF94,0xFF48FF2E,
		0x08D30434,0x0707F490,0x089F09C6,0xF491F99F,0xFDADF612,
		0xF29DF943,0xE8F6FDA0,0xF744FB66,0xEB67EE8B,0xF17BFB62,
		0xEF11FD70,0x00DFF697,0xFDC3FE5B,0xF738E4AC,0xFE53FA08,
		0x016F08D7,0x0802021D,0xEA2FFB92,0xFBDBFEE1,0xF7EF033B,
		0xF878FB58,0x1157FEED,0x030B033E,0xFD86F8AA,0x04420259,
		0x0EF5FF44,0x07EFFEA7,0xF9EC01F2,0x056804EE,0xF1CEFC99,
		0xF068F1B0,0xFC9D0146,0x03A60927,0x059C0DAB,0x078F01DC,
		0x01F70EBE,0x09660DAB,0xFFEE0AB4,0x067A036C,0x15DE0B46,
		0x0B8DFBF9,0xF80F08A9,0x0251F37F,0x07350629,0xF38FF319,
		0x0561FADD,0x01EE0C97,0x1B5D08A1,0x0780F084,0x102405F1,
		0x09CCFC70,0x07600FBC,0xFE860EA3,0x07E007E1,0x0FE7FF6F,
		0x05080DB9,0x07F7FA0D,0x019AFE0A,0xE979055A,0xF0AEF529,
		0xFA7C04E5,0x00D40AA5,0x0A420FF8,0x07BDF58E,0x07D20993,
		0x12F4074E,0x0C0105B8,0x095810E9,0x0E8311A7,0xFA5108F1,
		0xF844FD35,0x11E50240,0xFAD6FFDF,0xFFB9F65A,0xFC81FCFE,
		0x04230063,0xF24E027C,0x0663F6E1,0x11D80EF8,0x0DBF07DE,
		0x0EEF0F6A,0xF80105BE,0x0DDB17FB,0x04C208EE,0xE52BFB04,
		0x0A0AFE88,0x0164F409,0xF781FB02,0xF2F7F678,0xFA12F51C,
		0xE4D5F7E6,0x087CEB64,0x09330B33,0x0A5A032F,0x1196FE9B,
		0xFD40020C,0x035603E5,0x057C052A,0x095008A6,0xF8B6F2B2,
		0xF636F921,0xFAAA0515,0xFB9F0563,0x0298EF7B,0x04F3FABD,
		0xFFD1F4EF,0xFEE3EA66,0xFFBCFAC6,0xE632F046,0xDF70FA22,
		0xFB5CDDAC,0xF3F300F7,0xFE02F9FC,0xF424FB64,0x02A40F66,
		0x1720F08F,0x11020F1F,0x0CDD183C,0xFE30FDFB,0xF3540463,
		0xFFFAFAE9,0xE9D1FE58,0xE66BF740,0xE516F7F7,0xF12CE4E5,
		0xFB79F8E2,0xF908F838,0xFDDCFCF3,0x09321371,0x1A710FCB,
		0x14571763,0x0F2A0C6F,0xFB7A1867,0x0306F03F,0x107114CE,
		0x053FFF31,0xF628FBC6,0xDAF2F0F5,0xFFE2FD46,0x041C0CBB,
		0x064D040E,0xFBCDEDAE,0x0DA10BE0,0x09A70EC5,0x14751031,
		0x04140DE6,0xEE6D0557,0xFE2BF39D,0x192B0626,0xFAE80557,
		0xFBDEECBA,0xED45F886,0xFCD9FA76,0x0B6EF39A,0xF7B6025A,
		0xFD3A0452,0x0A4A0403,0x1504FB6B,0x0B801F09,0xFDF9F533,
		0x09F0FCA3,0x01EB0172,0x12A40C9A,0xFDC807A5,0x006CFAB0,
		0xFCA1F3A9,0xFB58FBCB,0x0CD1FD0C,0xFB190606,0x0548FE2C,
		0x0BE70143,0x060A04F7,0x0DBE0B54,0x08E0000A,0x0D7E0AAB,
		0x098006D1,0x00EB0660,0xFA7FF7B6,0xEF79FED7,0x0B3CFB68,
		0xFD58F6F8,0xF940FE0E,0xFCADF0B7,0x06E10026,0x0D090651,
		0xFD170CED,0xF2D7F08D,0xF9BAEF1E,0x03B707A7,0x0AC60C48,
		0xF205F0F8,0xFBB9F76A,0xFD4801D5,0xF9BEF60A,0x0BB50050,
		0x136402C9,0xF3E90033,0xF6B2F1B3,0xF917046B,0x01A4EF2A,
		0xEA54F338,0xF12DF9DC,0xEE74E0D0,0xF21D00AD,0xF7CEF412,
		0xF9FFFC42,0x0531F27B,0xF0C4F8A1,0xFF770408,0xF2A201BB,
		0xF867FC9C,0xEC71F7A6,0xF79B021E,0xF0A4FCD3,0xEB5FF08D,
		0xE5F6E5A6,0xF360F34B,0xEE8EF885,0xFB42FCFD,0xF36CF3A4,
		0xF0E60489,0xF786F864,0xF0EF03B8,0x00B7EC42,0x027FF851,
		0x08FFFBF1,0xEA8CE72E,0xD2EDE632,0xE845E27A,0xE6E9E6ED,
		0xEC7BEFC0,0xEE88EE83,0xF553FF3C,0x0392FEFB,0xFE76055B,
		0xF60DFFFE,0xFF13075C,0x06E1068D,0x08690674,0xF12E0666,
		0xE50EF546,0xE451EBDC,0xEDD2F1E3,0xF7CCF9A8,0xEF6FFD64,
		0xFE8BF16A,0xFDE9F4C9,0xF607FA0E,0xFF24F499,0x19DB02B8,
		0xF5EE08BE,0x0F88F5DA,0x03D5FC97,0x05B3010A,0xFBEE0A3F,
		0xFD34FD4E,0xF1500585,0xF56DF51C,0xFD22FB62,0xF0CCFEAC,
		0xE1FEF5C4,0x0491F551,0x02500A86,0xFF02F169,0x0C2F0032,
		0x03E4FD42,0x022C0584,0x0AAEF841,0x17C20805,0x04ED1896,
		0xF8CA106A,0x00D70202,0xFE24F016,0xEF48F50F,0xF174F729,
		0xFDC2F847,0xFA3608D4,0xFDEC0F21,0x00061169,0xFBA2068A,
		0xF8CC1304,0xFE21FA27,0xFF6A08CB,0x0AC60F4F,0x18590F23,
		0x0A550857,0xF8D50301,0x0BEB180D,0xFFAE0EDA,0x0D7FFE4D,
		0xFF420FA2,0x0DABF803,0x0BDEFBF1,0x0158FCE7,0xFB2CFD94,
		0x00EBFAE6,0x00EFF1AD,0x069E05A7,0x0F8EFE5C,0x038B0F86,
		0x09450B83,0x02D8082B,0x142605EF,0x077A09C2,0x0EDB0620,
		0x05A5FC37,0x05580DD3,0x04BA09B3,0x020EF862,0xFE7B076F,
		0xFC4D049F,0x038B0571,0xFAF2000E,0x0A7CFDC9,0xFDEC0D86,
		0xFA28F666,0xFB42FA7B,0x0B2100C7,0x00B7FF70,0xFFF1F64B,
		0xFF72FD32,0x00DF058F,0xFFD3F960,0xFB12F5CC,0xFAA0FECC,
		0xF6E4FD94,0x0997F8D4,0x068104A8,0x0D04F598,0xF4A00A75,
		0x115CF12A,0x0128F242,0xFE12FCC0,0xF3E2F7E2,0xFD930F6C,
		0x024FFF7B,0x03ED09FA,0xFF4017C2,0xF658018B,0x0B44FE2A,
		0xF975011A,0xFE54FE25,0xEE260A4D,0xF70210FB,0xFFC40026,
		0xFB18FE8D,0xF99D0CC7,0x03CFF345,0xFA73015C,0x02AFF69D,
		0x07E90339,0xF600F3BA,0x0B2F013C,0xFF41070B,0x00100226,
		0x03A50D52,0x127004DE,0x01460CBB,0x00AC02F1,0xFFF1EC7F,
		0x04D7F2DC,0xFF06FB5C,0x07410835,0xF33A1AFE,0x0937F759,
		0x0A4C0741,0x05BB05B6,0x02B0FB4E,0x0F730D9E,0x27332001,
		0x17D21A64,0x07B30CB7,0xF95DFAD0,0xFC69F234,0x03F60147,
		0x06060216,0xF64EF8E4,0xE9AD0300,0x00D8019D,0xEFDC0A2A,
		0x010F0039,0x00270371,0x08E30E3D,0x098D15BC,0x0104F74D,
		0x08A9FAD9,0x06E3F7FE,0xFE61F800,0xF290F39A,0xFD83F83C,
		0xF915F8FC,0x0B47FD61,0x0393FB53,0x013601FF,0xFE4AFABF,
		0x0C710C23,0xF7F0FD3E,0xF8FE0185,0xF58F0BB7,0xFE8F044D,
		0xF283E9E7,0xFED2ED97,0xE3C2FD79,0xF24DF627,0xE8E6FE35,
		0xF929FA4E,0xFC0E026E,0xF1E60D01,0x05F204D9,0xFF7A09B0,
		0xF2ABF541,0x05FEFCDB,0x07C3F949,0x0204FE20,0x03E1FEAB,
		0xF867F1B7,0xFF43053F,0xDFEFF911,0xFCA1F7B7,0xFAC8FD53,
		0x09B0FF2A,0x01910789,0xF4C00556,0xEFA7F4E1,0xE6EFE4E7,
		0x0632F2FB,0x01A40E30,0x05FB167A,0xF455E77B,0xFB6B0026,
		0xEDB8F5EC,0xEB80F9DD,0xF92EE39F,0xF3220112,0x0D27096B,
		0x0859FEA0,0xF412095F,0xF0B5F819,0xEE4DE95F,0xE8BCE393,
		0x0B39F276,0x12C606F1,0x0A92FCA4,0xFCAFEA70,0xF337F82B,
		0xDBF2E823,0xEF4FEF18,0xF6F20F68,0xF831F9B6,0xFA60F350,
		0xFF960657,0xE6BCF973,0xE46FF5DA,0xE59BF1F4,0xF851F914,
		0x181518ED,0xFD850058,0xF5A1E7FA,0xFC09FAF0,0xEE3DF64E,
		0xE2D2F4DB,0x0081ED6B,0xFD1501BD,0xFF7406AB,0xFC9F0396,
		0xE393F73C,0xE8DFDE28,0xDDBAE24E,0xF5A1EAB8,0x1BD71584,
		0xF38C04AB,0xECDD0C5D,0xFF12FC01,0xF019FD75,0xE5AEEE5D,
		0xFBB00287,0xF05E0093,0x0324FCC5,0xFD2DF7B2,0xFA5DEE16,
		0xE9E8F51F,0xEDAFFB1F,0xFC4500D4,0xECBC00AD,0xF4DCFCB5,
		0xFF1A0831,0x039EF5C1,0xFBF9FD9E,0xEE92F51E,0x1079FD27,
		0xFA2E0942,0xF683FDA6,0xEAECEEF9,0xF29FEE84,0x060D040C,
		0xF5D10396,0x002BFED0,0xF1FBECE9,0xF91B0758,0xFDD4F86A,
		0xFDF7FAA0,0x091F0608,0xFCD2FCEB,0xF66DEEAB,0xFB8E02B7,
		0xF5F0FA72,0xF761F835,0x08C9093B,0x0F03F9E3,0xFDAE0C93,
		0xF4EA004D,0xF164FA2B,0x0B57F1E4,0xF48EE89D,0xF77BE9ED,
		0x073DFDC3,0xFC050879,0xFCE5000D,0x0170FBA6,0xF4B90108,
		0x053400B1,0x1D4D0C97,0x1DDE0702,0x0469061C,0xFF5DFB39,
		0xF0530142,0xEE8EF6DD,0xF1810252,0x18B9FEF4,0xFE8406E9,
		0x07A60E44,0xFEED07EB,0xF6F30056,0x06280352,0x15B7F9F1,
		0x11550959,0xFA470F59,0xFD75FF78,0xF6D1003D,0xEB03F7EF,
		0xFF09F95B,0x05E1F743,0x0F25144B,0x0C14136D,0x004209DB,
		0xFE12063D,0x00C30E11,0x0A52EAD8,0x1A661D20,0x1BDA0938,
		0x0CBB102B,0xFF7D093C,0x0244F389,0xEB93FCC9,0x1450E787,
		0x108F06BD,0x0B151B0B,0x14841BEB,0x03D0F6BA,0xF3B3FFEB,
		0xFAC611C3,0x08EBFB27,0x00EDFFF5,0x0EEA002D,0x0B7A1C55,
		0x0D2E2116,0xF91300B2,0xF079F81F,0xFD8BFE04,0x19D1110B,
		0x08610C22,0xFDE91829,0x00D60970,0xFB49052F,0x00A200B4,
		0x075B0333,0x01D4F4E3,0xFF310667,0x0F520AA2,0x0F6E1519,
		0x0DC71CAB,0x1A291836,0x03891646,0x04F82B75,0x114B12AF,
		0x0F960F05,0x0986109F,0x05A3106C,0x0DA2ECDA,0x05020418,
		0xF4AD006E,0xFE07F298,0x118A0504,0x17F5090A,0x0D461D87,
		0x0ED00FD9,0x0F930790,0x0DDE1D5A,0x09EDFEF9,0x13D40D25,
		0xFFAA0239,0x0306F8D6,0x0AECF371,0xEA1DF96C,0x0304034B,
		0x062CFC0C,0x078004C6,0x0C9002B0,0x023D12F5,0x07D51587,
		0x042411EC,0x0C6C1315,0x0D2AFB90,0xF407FD88,0x0AAFF2A0,
		0xF2EAF885,0x165205A5,0xFB3DFB25,0xF47C06A0,0xEE82F935,
		0xFB11F178,0xFA9000D9,0xFBFFFD01,0xEC930D64,0x0988054D,
		0xFC520537,0xFF39F073,0xF9A6EC0B,0xFDF608EC,0xF726F9D3,
		0xFB52FFE8,0xFB7311AD,0xFB88FBD6,0x00C8079E,0xFD7B055A,
		0x01F8EE7C,0x01DDF725,0x02A1F93D,0xFB69FF71,0xF408F69B,
		0xFD5DEBB7,0x09710363,0xF768FEE6,0x05CF0C13,0xFE8904CD,
		0x074B0207,0x0B9306B6,0x0172FA34,0xF9980B52,0x06551365,
		0xF777FA35,0xF196F839,0x05AAFBA8,0xEED8FA3A,0x06B004CE,
		0xFDEAEE41,0xFE72F7BA,0x0D1401AD,0xFE5606EE,0xF3C808D5,
		0xF2741180,0xFA66036E,0x07AA0291,0x0490F698,0xFA6AF639,
		0xF89F024D,0xF28DFD76,0xF471F7A8,0xF8700649,0xF85D09F9,
		0x1309FA99,0x04B90F57,0xFAE9F3E8,0x104D02AB,0x07DFFE64,
		0xF1A7FC0F,0xEFCAF428,0xE098ED2A,0xFE20E37C,0xEE5EE517,
		0xF0F9F863,0xF0C8E99A,0x083EFB49,0xFFE00A66,0x06BC05CF,
		0x06810529,0x00D10A3A,0xF4D7FF68,0xFB8F08F9,0xF738FAC9,
		0x0AA0FDE8,0xFEEE094E,0xF77DF17A,0xF0D7F36C,0xFB6A0088,
		0x04E5F969,0x0490FEBA,0x030FF5B5,0x0BD30729,0x123C011B,
		0x0BA108B3,0x090E0172,0x0CE3EC9F,0xFCC001C2,0xFE5D0479,
		0x03A4F8BB,0x09480637,0xFBECFBE0,0xFF00F398,0x1586F73B,
		0xF8DF0C83,0x0421FB18,0xFE930773,0x0695F9B7,0xFD1506C1,
		0x02C6F161,0xFFADEC92,0x083504F6,0xFDE9F062,0xFA440049,
		0xF5C100C8,0xF839F671,0xFC7CFBFA,0xFCB9FC6A,0x052C129F,
		0x0648FAB6,0x076AF7E5,0x048CF62D,0xFFF10027,0xFAA2F731,
		0x03D302AB,0x00BB1388,0x0BAB0C02,0xFF25FBEA,0xF0900845,
		0x0890FAA1,0x022800CB,0xFE580124,0x05B90118,0xFB64FF6E,
		0x05C1037D,0xFE6E014E,0xF9EA065C,0xF5460A9E,0xF627F4E6,
		0x04A8FE5B,0xF74BFD55,0xF7B3F964,0xFBA104DB,0x0021F3FE,
		0x05DAFF60,0xF6C8F685,0xFCE8F513,0xFBCBFA12,0xFF6FF4BA,
		0x0E4CF577,0xFA841010,0x092E029E,0xEDAEF71A,0xF934FCFA,
		0xFA560381,0xFB2E01D9,0xF93AFAE5,0xFEDAFB6D,0xE9E5F205,
		0xF6D0EB3A,0xEFBCFB48,0xFF72FC28,0xFFEFFCB0,0xF44E075C,
		0x0716F976,0xFC3EF8F8,0xF776FECB,0x07E6F9E2,0x0B9BFF80,
		0x10AA06A3,0x0C6118D9,0xFBBB0FAD,0x0278F8F2,0xF2B5FBCC,
		0xE9D3F19A,0xFA3CF40B,0xF89CFAC0,0x029F08B1,0x04DCF818,
		0x055A03CE,0x012EFB22,0xFAD7FBBD,0x04B6FB77,0x15FFFB46,
		0x097BF76F,0xFABE0375,0xF2EB0B49,0xDE1DE0B1,0xF931F4A7,
		0xE904EF9A,0xF29FF108,0x0552F8BF,0x04AEFEA9,0x02BAEF46,
		0x069B00A1,0xFEC008F3,0x074A052C,0x221A0AF3,0xFBB7FA83,
		0xE9EE0A42,0x087CF501,0x16670454,0x0C5910A4,0xE85EF1CB,
		0x0DAFF099,0x180D051A,0x087DFE85,0x0B9FFFAA,0xFAD201A3,
		0xFA7D0144,0x0DE70BBF,0x076A1449,0x1BE526DA,0x188109E5,
		0x17D50687,0x0FC20C4E,0x19C32BF0,0xF33BF2AF,0xFC6709C7,
		0xF069F97D,0xF1D80D8D,0xFB5A0600,0x0E270935,0x0BB90575,
		0x0B8C0202,0x107E03E2,0x1FC2194A,0x2BC62007,0x14252FF9,
		0x163C1E1D,0x0FEDFE50,0x028FFBFA,0x05BBFF3E,0xFFA40378,
		0x05FBF368,0x077FFBF8,0x08E705EF,0x01EF1A54,0x0BEA0C6E,
		0x144F1D2A,0x3BDC21AC,0x348C3CEA,0x190B1E53,0xFD25046C,
		0x005EF5D6,0xF90FFCA7,0x07BF0310,0x0145F380,0xFFC7FA12,
		0x06FD0C3E,0x151800E9,0xF91A1341,0x0F8D07AA,0x0EFE0E86,
		0x38B4233E,0x1D373766,0x10CC15B1,0xFE64FA8A,0x0A430ABA,
		0x16690BA2,0x09000CDE,0x06FA1144,0x00F6FE96,0x12FF0AA5,
		0x0F4E00F5,0xFB7E08A9,0xFD790686,0x082AE758,0x18180D6D,
		0x0166171C,0x05C5F5FF,0x05070BBB,0x051B0D9E,0x1237188B,
		0x13FD0057,0x129C0019,0xFB24F85E,0x050A0713,0x01CC0A66,
		0xF6FF0B3C,0xF9C8FC26,0xCFE5E2C2,0xF2A5D100,0xFC23FF98,
		0x0D1EEDA5,0x1530011F,0xEF28F723,0xF6BAED30,0x00A6F1CE,
		0x0B3E04C5,0xF37F11C5,0xF9C0FBFF,0xE93E0A9E,0xF914EBBE,
		0xE7CBF533,0xC284E06B,0x05A7D909,0xF7FC0BC3,0xF28F0553,
		0x09940602,0xFD2C0AC8,0xE18AEFF9,0x075CF841,0x114B1C93,
		0xF941F891,0xF75A0859,0xE19C0832,0xEC5EE062,0xE174EBEC,
		0xD7C7DD4E,0x07B8EA85,0xF412F621,0xE684F3A2,0x056A03BC,
		0xFA03FDC8,0xE6FCFB50,0x0A90F1B8,0xFE260C98,0x0B3E05D5,
		0xF3FCFB8C,0xEC88F57E,0xF0BAF49A,0xF010EF26,0xE802FD50,
		0xF410E846,0xFCB8F7C6,0xFD36FBC3,0xE7170201,0xF6FC0B33,
		0xEBD5ECB0,0x069E05D5,0xFC390BC6,0xF64F09FF,0xFFA10095,
		0xF89E0931,0xEF38EE81,0xFDEDF5EC,0xF024FFC8,0xF11BFD72,
		0xE6C0E634,0xF599F348,0xFB37F343,0x02F50053,0x03B3F1AE,
		0x0876FF40,0x0A2DFF23,0xFB690C37,0x03C90166,0xF405FF7C,
		0xFB26F727,0xFF08FCE7,0xF182F90E,0xDDACFF32,0xEEA1E6E5,
		0x05EF00B8,0xF8F5F27F,0xF6AAF5C9,0xF7900094,0x11D802FC,
		0xFCA9F90A,0xF8C8FD4F,0xFD30FC8A,0xF59E0410,0x00DCFEAC,
		0xF762FCB7,0xFC1E10DD,0xF848EE79,0x03480793,0x0C39EF67,
		0xF6F7009D,0x08E4F83D,0x0BD10464,0x059809A1,0x0506F22C,
		0x0298FAAE,0x107FF889,0x09700701,0x0B690BDF,0x115A15B5,
		0x04D20AC5,0x023100CB,0xEE49FC90,0x06A700C7,0x07DFFB30,
		0x05B9052E,0x0BD10830,0x067C05D4,0xFA9308CF,0x0AD1FC9B,
		0x064F050B,0x17090B72,0x19AC0941,0x07802214,0x007E0315,
		0x11AFECB1,0xF750F319,0xFB82F466,0xFF7FF2E4,0x0330FB67,
		0x01AE05C1,0xF2C3157E,0x0938F0FD,0xF9F2FE21,0x07180718,
		0x104AF9F5,0x071C1400,0xFF1E17D6,0x005BEC86,0xE1BAEB99,
		0xF850F427,0xE36FFAA4,0x0654F2E8,0x095A0443,0x05D604C4,
		0xFFF506CC,0xFDF507F2,0xF701058C,0x0AA1F9C4,0x0627FE00,
		0x174A1C34,0x11FDFDF2,0x07E7FD5C,0xFBA201BB,0xFA15FE8B,
		0xFB19FF4C,0x0310ED5A,0x05C80306,0x002E0752,0xFDC3FFD1,
		0xFD790555,0xF883F60D,0x070214D4,0xFE0B0574,0x07E808DB,
		0x06E709C4,0x0E7E0DFC,0x0FAA1DC7,0xFB730319,0xF43A0148,
		0xF264FE61,0x0B61F1C7,0x0C7F036B,0x023F07D1,0xF51003B7,
		0xF90FFFD2,0x04FA0D13,0xF85500C6,0x097A06A3,0x0F770E09,
		0x04440F25,0x0A56053F,0xFF3D08ED,0x0A50F954,0xFCF100FF,
		0xFBFFFC43,0x0F2BEE92,0x00E4FA5D,0x080EFCE8,0x09CD06C9,
		0xF71804AF,0x0173FB8F,0x090A0089,0x0D030749,0x0C930A29,
		0x0BD816A2,0x088A0119,0x12E02029,0x17A42317,0x0825175D,
		0xF42E0AD0,0xF6AC0051,0x04BFFAD7,0x0BA0FEC6,0xF444F554,
		0xFCD402A9,0x032EF8AB,0x0ECE0FA0,0x0F3A1FE3,0x19D816AC,
		0x1B860B1E,0x16F01DF3,0x062E1583,0x0FB21133,0x05040FCF,
		0xEAD506E7,0xF946F89D,0x04D7FF10,0xE9130A5C,0xFBBB0DC2,
		0xF9DDFE00,0xF89307E6,0xFE47070C,0x0A740A2C,0x054D0D94,
		0xF033FAE2,0x0BD502F6,0x047E03E3,0xF7EC08AA,0xDDCD1222,
		0x0125FC70,0xF35E003F,0x01A9FC01,0xF82AF6C6,0x011D06C0,
		0xFC13072E,0xFA08F948,0xFCA4F7E5,0xFB99F99E,0x04E2094F,
		0xF68EFCFD,0x0D180E46,0x046408B4,0x0E4FFC45,0xFC020A9A,
		0x04AE0138,0x0E9FEEA0,0x0116F74D,0xFAC3F895,0x06A4F272,
		0x01D20DCB,0xFEA50CF6,0xFD09FDDF,0xF117F968,0x07B5FAF8,
		0xFC5E0142,0x049600BE,0x0F950867,0xF88DFA6F,0x056206CC,
		0xFE49FB8B,0xFFD105DD,0x1C85F568,0xFDC3F9FA,0xFF290971,
		0x00A500CD,0x0054F5FE,0xF71EF109,0x02D8FC56,0xF6E5F1A8,
		0x0AFAFE53,0x0A5203C8,0xF7A5FA2C,0xF884FA44,0x0068F9F0,
		0x05790758,0xFED9007E,0x08C301F8,0xFC8C13A3,0x07621503,
		0x10190028,0xFDCF1407,0xFD0AFBC5,0xF22EF12C,0xF1D8FB33,
		0xF607FAAB,0x068D04D8,0xFC9BFABA,0x0B57F904,0xF1FFFA4C,
		0x06B901B2,0x053BFEA1,0x06ED01A9,0x05B702B9,0x16C60AA8,
		0xFF1309B3,0xF5470C5C,0xF6D10D3A,0xF05DF32D,0xFA1AFF1A,
		0x14CC053B,0xF962FA0D,0xFB81057D,0xF75F08F6,0xFB85FB0D,
		0xFF03FD28,0xED610AEE,0x06790584,0x1034F9E4,0x0069062C,
		0xF821051A,0x008A0C8B,0xECC5FA33,0x0105F890,0x078AF969,
		0x04E9FC29,0x03190155,0x053C097C,0xFEFE0261,0xFA430442,
		0xF483081A,0xFC240341,0x0BA1066F,0x042D08E0,0x0A87FF99,
		0xF5FC001B,0xF148FD18,0xFD60F628,0x0A2C0AF5,0x0014FFB9,
		0x0B52F46E,0x03BE0383,0x09D204A4,0x0A3808E5,0xFEE60472,
		0xFCB0FAD5,0x09450582,0x02530C3B,0x0BC60AC1,0xFF490A0E,
		0xE8220B82,0x0802E811,0x0D25F7ED,0x0A39F832,0x079C0213,
		0x010CFEEB,0x0385FFAD,0x0027FF55,0x0B7BFEF2,0x05B7FA9E,
		0x124F1B9A,0x03110648,0x022B09BD,0xFC550481,0xE44B0605,
		0xF7FAE6DE,0x0C520366,0xF8CE0215,0xF7AE0099,0x059FF843,
		0xFCB6FCCE,0x068808FD,0xF51C0769,0xED5B0901,0x0E99F042,
		0x09D40E89,0x07881227,0xF58802C6,0xEDED0609,0x055AEDCC,
		0xFD27F1FC,0xF1FE0AF1,0x08EC0AC4,0xF4A4EF51,0xF2F3FF3B,
		0xF6BFFE7F,0xE272FA30,0xB02FDB00,0x0486D1A0,0x02180876,
		0x023BFED1,0x0BA8075C,0xF273F44D,0xFFC000A4,0xF12E057A,
		0x0C1C090B,0x02E40CDE,0xF0BDE74B,0xE154EAC2,0xBD5ED905,
		0xBB8CBCC8,0xD5FED17E,0x131AE529,0x01971436,0xFFD30D5F,
		0xF2970457,0xF674F544,0x1169F80B,0xFD54F59A,0x0097F95E,
		0xFDB11170,0xCCADE621,0xCA36CF9E,0xD6BEC94F,0xF063DCF7,
		0xF08AF240,0x0DD6FB41,0x031CFD9C,0xF429093C,0x016BF486,
		0x056DFE9F,0x086904EF,0xFE450773,0x0919F55D,0xF59DFDC1,
		0xDD6ADB0D,0xD2D0DB1C,0xFDE8F16D,0xFD7A04DD,0x0169FC7D,
		0xFDD6F7BC,0xF1E10654,0xFEA70615,0x0A6E0253,0xF485F5BF,
		0x06C6FA25,0x04AC0156,0x03AD03DC,0x0383F9C5,0xE8C4EC87,
		0x05EBF695,0xFB8EFCE8,0xF9A9F1ED,0xFB69FDDB,0xFB55FB03,
		0x02EE059F,0x05A60680,0x0127F22F,0xF0C6FAEC,0x057707B9,
		0x029D03F7,0x04EFF21A,0xF5D20B7D,0x092C0189,0x03A2FF0C,
		0x06C20BC1,0xFFE8007B,0xFEA3FC1A,0x07C50A91,0x00B607C4,
		0x07B70926,0xF6A60355,0xF380F5E7,0x03A3038C,0x05A0FCEA,
		0xF913EAF0,0xF6DBFAFE,0xFD19FB57,0xFEE40167,0x019AF930,
		0xFE88FB28,0xFCA71018,0x07A7F607,0x0551FD1A,0x0C8D0A69,
		0x12D4F179,0x0421F8BC,0xFBDD04A9,0x016202F7,0x0BA90287,
		0x06740040,0x0B9C16E7,0x006D0EF8,0xF003FF0F,0xF61601BC,
		0xFCC10226,0x0A760AE7,0x0916090D,0xF670FFB7,0x0329F9E2,
		0xF7CA02A0,0xFD5CFC0C,0xFD740049,0x0C400EF6,0x0406FE79,
		0x106A139C,0xF7050D8A,0xF6C3F9DF,0xF53DFDC5,0xFC0C0B94,
		0x06E60231,0x0895F73C,0x04C501A5,0x014C0762,0x0CC6075B,
		0x03501443,0xFC83F92C,0xFCEB055F,0x04510588,0x066B0951,
		0x0659072A,0x00BAFC81,0x00FEFC5E,0x05ECFF50,0xFA4DFE53,
		0x1C6B0CE6,0x0C73FAD8,0x05510FED,0x006BFCB1,0x0CEF1A0E,
		0x05330352,0xFBFCFFBD,0x052CFD10,0xFC7C154A,0xFF6A0B73,
		0x136F01EB,0x0553FA86,0xF120F888,0xF3ABF045,0xF8820218,
		0xFEC40CAA,0x0CDDFBA6,0x11DA0611,0xF13DFD37,0xFE1506BF,
		0xF43A0E8A,0x0DB5FC69,0x0B4D08A7,0xFBD504D7,0xF8980589,
		0xF74602CE,0xFDD7032F,0xF9020794,0xFDA4FBC0,0x0F9FFF33,
		0xF86D0268,0x0F391210,0x01BB07CB,0x06F4F228,0xEC56FE0A,
		0x054AFEBE,0x1CFC1180,0x194F0274,0xFDD5FD3B,0xF7EC00D7,
		0x022DFA06,0x04DCFB10,0xF838F831,0x1748FDAD,0x068AFC61,
		0xFD590EAD,0x09560EAB,0x09AB0359,0xF37AF469,0x04950699,
		0x0C050254,0x08EF0350,0xF6EAFC07,0xF957EF18,0x09F2F800,
		0xF83DFC42,0xF9120110,0x1045025B,0xF6FB00A5,0x01E6FD92,
		0x01D90233,0xF2E0072F,0x01C8FAFB,0x0E5606CE,0xF6FB053F,
		0x0B961B93,0xF8D90966,0x06320800,0x018101D3,0xFE090975,
		0x02B8F097,0xEDEDECF2,0xFC19E8B0,0xF3CAF14F,0xF61602DC,
		0x0265FC42,0xEF160813,0x1079FC70,0xFACCFD5A,0x0875FAAD,
		0x10EE00AC,0xFC4B0CF2,0xFC5B0F73,0x0975FE33,0xEBF5FD37,
		0xEDEB00E6,0xE786F0B5,0x0348F517,0xF249F57E,0x065005CA,
		0xFAC9FB21,0x02560C7F,0xE97E007F,0x0D31F575,0xF5F500F6,
		0xF3A0012B,0xF511FDE7,0xEFF0FCD2,0x039A000A,0xFE31F540,
		0x01ACF258,0x020CFB50,0x0B5E01E0,0xF83B0333,0x03CFFEBD,
		0x0313EEFA,0x05D50668,0xF84E03AB,0xF779FC08,0x0058FE54,
		0xFEBDFBF2,0xEF96FE82,0xF8F3FD83,0x09CC0AC3,0x03660D5E,
		0xFAE2FE50,0x09BFF391,0x064D043C,0xFC9FF76A,0xFCCD0A29,
		0x0B7E07AF,0xF8A1F628,0xFEB10322,0xFD190BBD,0xFBF0072B,
		0xF5AF0127,0xFF87F26D,0x0125FAFE,0x0674F7DF,0xF824FF4E,
		0x031AF19D,0x03BEFF6C,0xFC8F017B,0xFA3DFD9C,0xFEEBF59F,
		0x018C06B6,0xEAFC00CD,0x11CFEFC9,0xFB9D0CCA,0xF8FBF8E9,
		0xF3C1F77D,0xFEA1FB35,0x0DBBFD97,0xF2CEF348,0xF620FCC3,
		0xFF0BFD38,0xFBB20369,0xF2C7FCBB,0xF2DB03DD,0x0A0D074A,
		0xEAA40649,0x044FF2FB,0xFA84FBE8,0x09DBF82F,0xEF77FA31,
		0x0959060C,0x0AA0F730,0xFA53FDF2,0xF9E20CAC,0x09FDF3E9,
		0xFB35F4A8,0x08680DC6,0xFFFEF8E1,0xF70EFE30,0x01EAEF85,
		0xF2F4EFA3,0xDF3FF277,0xFA8CF56B,0x0003FDCF,0x02A209AF,
		0x040700C9,0x02CEFB22,0xFEDF08B7,0xF75DFF49,0x05E1FFB5,
		0xFADDF866,0xFA58042D,0xFCEFFD27,0xFD14FDC9,0xF1AEECD5,
		0xE585DAA3,0x0038E3CB,0xFFB9F139,0xF8E3F451,0x0181FEB1,
		0x0C1406A7,0x0009FC2B,0x02230744,0xFEDDFEC4,0xF0EDF902,
		0xF8DAFF32,0xFEADFEA7,0xF3C5F5FF,0xE3FBDCD0,0xFFBBEE1D,
		0xF19FF6FD,0xFD58F98D,0x104B039B,0xF9370C9B,0x0CB91100,
		0x073A03DE,0xF83DFA7D,0xFEC4EF76,0x01C8FE31,0x05800188,
		0xE9D708F4,0xED29D897,0xF71CE7C4,0xEC6EF7CA,0xFB46FB91,
		0x013DF658,0xFA350404,0xF27E0C16,0xFF3EF730,0x0BC11070,
		0x0CE6FFD0,0xFF4FFC8D,0xFB1FFBB7,0x087317EC,0xF157F7CE,
		0xF3CEF501,0xF60DE400,0xFA75FF25,0x06D208AE,0xFDB3F44A,
		0xFB91F8BF,0x086711BA,0x063601D4,0x0EDC1CAD,0xFDAAF78E,
		0xFC31FE2B,0x08230997,0xF3F4FA7D,0xEB6FEE55,0xD860F34C,
		0xFF77F43B,0x0E10F8A9,0xF46305C8,0xEEAEF571,0x08670180,
		0xF24EFC8E,0x0500F6D9,0x15C417C2,0xFAE70A1C,0x05A6FBF5,
		0xF596F328,0xFE42F1C9,0xFEE3F94A,0xECB4E38D,0xF7EFE51D,
		0x0F0305C5,0xFC240A4C,0xFD360655,0xF55CF991,0x0C9CF985,
		0x09480970,0x11A61132,0xF43512BF,0xFF04FC43,0xFF38F98E,
		0x04CF04B7,0xEF4AF1D7,0xEC35EDB9,0xFE00FA11,0x12BB149D,
		0x0FFE098E,0xF36D0207,0xFBC50081,0x0C701086,0x178D09B7,
		0x0DC31642,0x06A6FB48,0xFE3F064B,0x00CF02C6,0x062B066F,
		0xF247FBE2,0xEAB501B4,0xE2EFF22B,0x19EFFAD6,0x0EC00593,
		0xF01E0EC8,0xF20901EA,0xFF01DE3D,0x0B49F08A,0x12FD05F8,
		0x0787F7F7,0xF2E9FEA2,0x0447FD06,0xFD82FC25,0x05B6FDFE,
		0xF7ECF9CE,0xF365F205,0x0C910339,0x15B81506,0x02FDFE88,
		0xE909EB0B,0xEBB7E356,0xF6C1E437,0xF73DEBC9,0x0B9CFE33,
		0x0AA802D9,0xFE19084E,0x064F0B29,0xFA38FBE4,0xFBC4FF9D,
		0xF83FF1DA,0x09A60A2D,0x05A904CA,0x04BCFBA8,0xE8CCF4E0,
		0xE527E4C2,0xEEBBEF4C,0x003AEFAD,0x01540271,0x0053FEFD,
		0xFF790715,0xFE2B03B1,0xEFEC04C4,0xF8F1055D,0x009AFA36,
		0x0E8A0729,0x01120F2B,0xFEC6FCA2,0x003A0441,0xE862F463,
		0xF123EFE3,0x0AED01E0,0x0436F6DA,0x0104FF4B,0x0000F770,
		0xFF3A0A92,0xFDF5FC6C,0x00B7F3F7,0xF76BF90F,0xFE60FDF2,
		0xFC0D0990,0xF509FADE,0xF45B0580,0xEB2C04DD,0xF46EEEDE,
		0xFBD5FF92,0xF96603DB,0x001CFA8C,0x0138FB73,0x0C8C04EC,
		0xF04002B3,0xF18AF1C4,0xF8AFEDF3,0xF717FF0E,0xFB690033,
		0xF8A4F86A,0x01DBEE86,0x006AF5C3,0xF4D5F704,0xFACDF32E,
		0xFE3EF0E2,0xFD760DE5,0xEF18039E,0x0A0B0156,0x0118FC80,
		0xE7C8EE95,0xFA65F9C8,0xF0EBF114,0x0E3705C3,0xF47BFE50,
		0x0703F803,0xF46703EA,0x02DDFAE6,0xF559FB47,0x0E48FB91,
		0x03E60C71,0xFBA2F224,0x01E401CD,0x0064FFEB,0x09C609DA,
		0xFFB60395,0x02CEF484,0x065819A3,0x01D400A0,0xF64307E4,
		0x00E1FE39,0xF4A4F4B0,0xF0C50932,0xFC0BFCFC,0x03E2028D,
		0x00950493,0xF105F20A,0xFB04F258,0x0CF50D20,0x10400425,
		0x113C067B,0xFEE50420,0x078E0639,0xFEA70936,0xE74C00AD,
		0xFF42E8CD,0x0958F9F0,0xF1E5FFDE,0xFF7B0487,0xF962F6C9,
		0xF5B2FD9B,0x01D0FB19,0xFAEC0B0B,0x0BF004F0,0xFB7BFE11,
		0xFC790EEB,0x07CF0502,0x001A06D7,0xEA56FAC2,0xF222FD16,
		0x0900030D,0xF804FF01,0xFAB1FABA,0xFC05FB94,0xF0E0EC35,
		0x0021004E,0xFFCA0A74,0x1349F675,0x0846FA97,0xF4331211,
		0x004BFF20,0xF52E0137,0xF1C2E99E,0xF4E3FB2A,0xF61E0D8A,
		0xFB3BF6AC,0xF9CE11CD,0x016A01E2,0xF3E4FA06,0x07DB0757,
		0x0676F9FD,0xF6F9071E,0x01B1001C,0x0902001A,0x15F50882,
		0xF4790D36,0x00810179,0xF652FDA8,0xFA14079B,0x07AAFC3E,
		0xF307F407,0xFD8BFA52,0xFA5E0494,0xEFBCF655,0x05420F25,
		0xFE0E09C5,0xFC72006B,0xF355EB94,0xFF840237,0xFBA4F55E,
		0xEE80F917,0xFBC6FBC5,0xF2D608F9,0xF5D00879,0xFCB710B6,
		0x06110071,0xF5B6092A,0xF689F896,0x0C6500F9,0x01F0F88F,
		0xE6A6FD70,0xF438E6A7,0xFBA3F76E,0xF824F57E,0xEF360779,
		0xFFD6F739,0x0FBD02BE,0xF1EC0817,0xFEEBFFA6,0x031FF8EA,
		0xF8830933,0xE6A7FC9B,0xE8A2E8FA,0xEA67E851,0xEC34E8CF,
		0xEFC2EE5D,0xFD15F76D,0x1368F3D7,0x066304A7,0xF7C9F8BC,
		0x0256F99C,0x04F0FB4D,0x0178F831,0x09B4F9EB,0x0552F4D7,
		0xFABEFA76,0xF2F5011E,0x0365F7EE,0xF55A07F7,0x07E2EFF7,
		0x02C00182,0x05EFFC17,0xF9AEF30C,0xFA24F22B,0xF814F81E,
		0x02BE00A9,0x025D055B,0xFE86F790,0x025C00B7,0x03AC0596,
		0x04460745,0x0833F7F8,0xFBB2F09B,0xF7D3FF1B,0x0CCE0834,
		0xFF08F584,0xEAE0FE98,0xF50503AB,0x027305A0,0xF161F6E9,
		0x0620FCD0,0xF6E3FEED,0x0A7005C7,0xFA0602F6,0xFA850258,
		0xFB28F689,0x09F7FA70,0xFC7E0D08,0xF528F94B,0xFB78FD7C,
		0xEE03F6F3,0xFDBA0045,0x03C0FF4D,0xFE180100,0x05221399,
		0x02050D51,0x01CB0289,0x0251F350,0x0237017A,0xF95602B3,
		0x14B60050,0xFEE8081D,0xFEEB043A,0x01520BF4,0xF8FCFFA5,
		0x1054F215,0x0C2DF3E6,0x0839F597,0xFF040283,0xFC47FBC9,
		0xF7D701E7,0xFED402F2,0x02440A8C,0xF142FE3C,0xFF2CFB89,
		0xF52C0396,0xFB390094,0x009DFC60,0x0188FD66,0x04D0024C,
		0x03B2FEF8,0x0652F914,0x07AAFF81,0x03AEFEC4,0x0FFFF74B,
		0x06B9FE41,0xF55F14DC,0x0D9F09E6,0x075EF174,0xECF302FD,
		0xFBABFA2D,0xFC56060C,0xFA18002E,0x00EFFA42,0xFB140208,
		0xFFC5E573,0xF158F535,0x05FE0048,0xFB71F902,0xFC1EFD04,
		0x02F7FE11,0xFC8AF698,0xF3ABECF1,0xF94DFA68,0xFDAE0565,
		0x1441FD73,0xFCA50F83,0x00760368,0x0432005A,0x0A7D11C9,
		0x05C6F663,0x03E9FCA5,0xFD29F94D,0x01D7F8BF,0xFE6CFC1C,
		0xFA1D084C,0xE9E209F0,0xDCDAF366,0xF679F4F3,0x01C3FF98,
		0xFFEFFF79,0xFDD7044C,0x074BFB81,0x0094FB03,0x00CA01C2,
		0xFCFC0586,0xFFD7F946,0xFA24F86C,0xFB76093D,0x05F9031A,
		0xFBB505C6,0xEF68F052,0xFF4F01AF,0xF6700DA9,0xF56105E4,
		0x081A047E,0xFC38FEB0,0x0784FB96,0xF4910BC3,0xF3DAEFEC,
		0xFC560A5C,0xF5D60823,0xE9D6F777,0xFE980133,0xF5470120,
		0xF63AFBCE,0x08730BCC,0x109FFD3D,0xFFBC08EF,0xFBEB06A3,
		0x0539F6BC,0x042C05F9,0x0492FD33,0x0217FEB8,0xF98E0BB6,
		0x05F6F5B6,0xFA12FD5E,0x001FF888,0xFA6B00C9,0x099CF5BD,
		0xFE65F400,0x037D04F6,0xFC4BFE12,0x01A1FDCD,0x0455FA04,
		0x0877032C,0x0367F56F,0xF5A0090E,0xFA35072F,0xFD5F01E8,
		0xEF80F676,0x0318FC0F,0xED1F02C0,0xF8A5EB31,0x0B62199D,
		0xF77B097E,0x017007A6,0xE0A4F935,0xFC92F642,0x0A95FA71,
		0x13A702E2,0xFD6501B1,0xFA02EAAF,0x00A406F8,0x02370A69,
		0xFE92010B,0xF771EFD3,0x04F90160,0x0CFB0411,0x0F910A4B,
		0x01A0FCEC,0xF19FFAA6,0xF2B0FEA4,0x02DEF1F0,0xFFAB0CDB,
		0x00B307C4,0x11C8F236,0xF4770255,0x07F608B9,0x0571063E,
		0x00AAF599,0x19150276,0x048209B0,0x095C031C,0xF5C20BB2,
		0xFA3FF9A8,0xFD70FA9B,0xF1D5FE85,0xFCE60141,0xFE4506B3,
		0x0C590CEB,0x099C0E1A,0xFD450B48,0xFE4709AA,0xF0430003,
		0x0F22F95D,0x03EE06AF,0x001701B4,0x06340FE8,0xFD3A01D3,
		0xFC0FF741,0xFC7D0323,0xF60302BD,0x06BF0523,0x065118C6,
		0x0958035A,0xF69FFD59,0xE569FA07,0x0BBCFAE5,0xF6EB11FF,
		0x14C1EE2D,0x0144F9A7,0x0B9B0E48,0x06D2F843,0xFDF2F009,
		0xF14506D7,0x039C01B7,0x0DC7032B,0x0A6F04B4,0x042106D1,
		0xF95B0320,0xFAEEFFCA,0xFB0E007E,0xEB050DD4,0xFC4AF6EA,
		0x03E40137,0xFFDE2489,0xF745F450,0x086609FF,0x051BFD65,
		0xF5AD047C,0x15F9F2D2,0xEEA50664,0x092FFF66,0xF58D0770,
		0xF8B20B14,0xFC5DFC6D,0x04A0FE5B,0x0723FD0A,0x006D04F5,
		0x06C3FDC0,0xF9F00102,0xFC960B13,0xF2ECF4F9,0xF9B6FAE0,
		0xFB90044D,0xF7CD0495,0xF6E9F85B,0xFDC3F92B,0xFF5C011F,
		0x1407FD0A,0xFDB41292,0xEDD0FB9D,0x0171FCD3,0xFEFFFB24,
		0xEF7CFC98,0xF698FACF,0x0F060295,0x10000BB6,0xFF08FC9B,
		0xFAF30A91,0xF80406FC,0xFB77F4FB,0x094DF60F,0xFBC20441,
		0xFEE30027,0xF118EA51,0x065B0160,0x04BD0035,0xFD00EE6F,
		0x0C2CF662,0x078EFA0B,0x0C27FE7D,0xF8DDF9D2,0xE8CBFE3D,
		0xFB9602C4,0xE833F38B,0xFEB9F97A,0xF5AD1464,0xFE960086,
		0xF734ECFE,0x02F200F6,0x08510287,0xF501FBB5,0xFA2DFA7C,
		0xFF800649,0x06E30036,0xF89CFAFA,0x017BFECA,0xF3C9F011,
		0x01EAF80E,0xFE84FE63,0xF0D90993,0xF73DE100,0xFD1FE5DD,
		0x0632F858,0x00F3FEBC,0xFAFDF7D3,0x0205FA99,0xFCEAFD39,
		0xEF730853,0x062A04A0,0xFA7CFBE9,0xEB5C0048,0xFB7A0084,
		0x09AA0978,0xE865FA98,0xE9C4E2DD,0xF778EFFF,0x05AA0287,
		0xF3410024,0xFA36069A,0xFA06FFE7,0x0E52FD04,0x08EA027D,
		0xFB6BF8A8,0x09DAFBBF,0xF783F1D4,0x049AFCD4,0x096CFB90,
		0xF5A9FE10,0xF433E801,0x0A51E284,0x08750173,0x07D903EA,
		0xFA4600B4,0xF7900D5C,0x01580AB1,0x0793ED13,0xF9D2005D,
		0x08D1FB5D,0x045FFCE6,0x00FB0A14,0xF9C3FB40,0x04B0EED5,
		0xE126FC1A,0xF6A1F505,0x071801C7,0x0B03FAB7,0x04D7FEE5,
		0x0002012D,0x0373F7C2,0xF27BF82F,0xF26F031D,0x0681FEE6,
		0x0D40FF78,0x03230160,0x0BC0FFB8,0xED75E7B0,0xE5EBF3BF,
		0xF031F53A,0x0C15F598,0x07470366,0xFE2EFAE5,0x08A1F329,
		0x066B015A,0x05BF03CA,0xFAF7F976,0x04530A01,0x0A6B1597,
		0xFA9DFF87,0x01CCFA05,0x01DCEFAD,0xEBBBF4FC,0xEC65F76C,
		0xFB4EF16C,0x0C120E42,0xEE6103E3,0x087808A2,0x05F70174,
		0x03F604FB,0x0B61FEFA,0x075CF77A,0x03BA0519,0xF65709F3,
		0x0881062A,0x043AF3C4,0xFB6CEDBB,0x0130FA7D,0xE5F6002E,
		0x01C107AA,0x0507041F,0x0663097E,0xF9E1F36E,0xFD79F4F3,
		0xF5FCFDA3,0xF65F0669,0xFD0E0A34,0x00DAFF87,0xF98D0F72,
		0x0AB7FED7,0xFFD9FC4A,0xFE77FC36,0x091700AE,0xFF0FF67D,
		0xFB2B0A96,0xFC7FFA4D,0x0922F6EA,0x03BCF5E7,0x04FB0037,
		0x01E6F10A,0x092E0238,0xFBE9F7F9,0xFBA40270,0xEAE2F710,
		0xF89AFC0D,0xFE90FBE7,0x04B8FFD0,0xFF7303C8,0x05FC0182,
		0xFE110032,0x0253EFF9,0x0B130188,0x0BCF0C44,0xFC18FE78,
		0x0EA9F9B9,0xFE12FB26,0xFA2B05B8,0xED930F83,0x089E0159,
		0xF8FBF192,0x038FFAE6,0x109DFAE8,0x0627F4A1,0x07E4010A,
		0x034D0047,0xF9BCFC22,0xF9A7083A,0xF3EFF2DD,0xFACFF07F,
		0x03FAED81,0x072C0487,0x10D11048,0x0A250AD9,0xFF96F9AA,
		0xFBB90172,0x0383ECDD,0xFBD70520,0xF92304E6,0x0807F8E4,
		0xF80AF807,0xE65206BE,0xF6DCFA20,0xFD6BFA5D,0xF6D305A3,
		0x0D9CF645,0x01E6067A,0xF2BD0B3E,0xFA750E1D,0x036EFFBE,
		0xFF76FA07,0xF944048A,0xF21E03BA,0x10D6FBB7,0x04290B2F,
		0x027B0809,0xFC8701C9,0xFE190700,0xF7A9081D,0x08FD0355,
		0x0D2112E6,0xFCD7FCC8,0x0289FAA1,0x057914AE,0x008F0A4D,
		0x1127FE7E,0xEFE30613,0x0438002D,0xF4D30432,0xFE69022C,
		0x0E6FF31E,0xFF68FC1D,0x0085FAC2,0x0144089B,0x08D20CD2,
		0x0EE40C3E,0x0EBB1090,0x0F3C06C4,0xF1BAFEF4,0xF1F1FA84,
		0x033B014E,0x004706DD,0x012FFE87,0x0377E980,0x0D16F53B,
		0x05F9F765,0x089A0983,0x024B0BE5,0x0CD1162E,0x077F0FAF,
		0x1A6D07D5,0x10F20968,0x11460733,0xF129F055,0x0BCEF5EF,
		0x00AA0005,0x0D8A023D,0x0731F605,0xFD600225,0xFA450769,
		0x033403DB,0x020C109A,0x060112E9,0x0EF20C09,0x02C40018,
		0x098707D0,0x03A90BB6,0x17380C9C,0x0654FED1,0xF6520194,
		0x06E00C76,0xF8ADE7A3,0xF8CD0508,0xF540FB85,0xFCD90C95,
		0x05210360,0x0178EF1F,0x0CBFEE80,0xF39BFE80,0x13240ED1,
		0x0B08FA4C,0x0BE201F9,0x009C08BA,0x0145004B,0x12DA00A1,
		0x02710449,0xF40109F5,0x044F0577,0xFB04F8A5,0x0876F84F,
		0xFF881AA9,0x0920FED1,0x022E0FFD,0xF40C055B,0x121004A8,
		0xFE7C15DD,0x08D10F9E,0x01AE0A20,0xFCAFF9A5,0x003DF9C6,
		0xF485FE2C,0x059D00F0,0xFDE9097F,0x06B401E7,0x0847EA8D,
		0xFB15F773,0xFD4B0146,0x044705D0,0x02FB0C08,0x16B50655,
		0x1B180979,0x00DE0C41,0x115AFEF6,0xF391F48D,0x01EEFD8E,
		0xF85F0949,0xF100FB8F,0x02F7F231,0xF7B4F0ED,0x0DE20C57,
		0x0C22FE1E,0xFA2E09F0,0xFF8F03A5,0x15C2FF56,0x14B31678,
		0xFCAFF798,0x057D0272,0xFDAB0198,0xFE76F995,0xEADBEF5C,
		0xFE3DFF22,0xF0C7F62F,0x084B0297,0xF0A218C3,0xE65FE1A1,
		0x08BEFC60,0xED99F99D,0x20FC0288,0x016A0F83,0xFD1DFE7F,
		0xEBF50676,0xF5C801A9,0xE7B6ED4D,0xEBF6F4DF,0x0104F790,
		0xFCC6E8B8,0x16CB0D06,0xF12F206F,0xDA78E04C,0xE8BAE204,
		0xF234F1F4,0x15520F63,0x0F0A13B3,0xF0000680,0x05E0021A,
		0xFAD2FF7B,0xEC4BEFE8,0x0272F3FF,0xFD250D3D,0x0D00FB64,
		0x198B05DA,0xF98A119A,0xD507EC24,0xE7ACED14,0xEB23ED0F,
		0xF9FEFA5C,0x0595FFFB,0x0691026C,0xFB95F341,0x01AEFA87,
		0xFA0FF136,0xF20704A4,0xF992FD25,0x0C3B093B,0x128A0FD8,
		0xF0A10678,0xF049F913,0xE2D1EAE8,0xF43AE4DB,0x0256E87F,
		0x02F40350,0xF76DF7E9,0xFBDC003D,0x04A108B6,0xFDA5EFB4,
		0xF8C702EA,0x03D2FF47,0xF9B9FFCE,0x1DB5163B,0xE6D60A1F,
		0xE4E8EB43,0xE60AE7AA,0xEE63F070,0x0D6BFC45,0x04D60F84,
		0x08050093,0x03EC05A9,0x02A104CD,0xF72AF766,0xF5F108D1,
		0x00530513,0x0BC3F153,0x164B13F5,0xD85908A9,0xDF67E1BB,
		0xF82EEA21,0xFBAFEDCD,0x173B07C4,0x1033074B,0x01A10875,
		0x094401D3,0x016DF968,0x1AEA12F4,0xFBFB0123,0xFFC0F006,
		0xFA5D090C,0x0A1C0B25,0xD8D3F2BE,0xFE48FD84,0x0857EFB3,
		0x012F001E,0x1CAD1A3F,0x02320137,0x00F8F47E,0xFCEC0742,
		0xF6020C3C,0x029B09DD,0x01981794,0x0257FBAE,0xF9D6F9AD,
		0x08570539,0xF1F7F12F,0xFE50F29C,0x09F40095,0x03F5FB06,
		0x1B052416,0x05A31975,0xF6A80386,0xFD68EF27,0xFF1EF670,
		0x10C02724,0x160012BB,0x174E14ED,0x089521FF,0x097A18E4,
		0xF7B6000F,0x018D014D,0xF5F714F2,0x0B1E1369,0x13EA1E7F,
		0xFD190DEE,0x118A0441,0x021F0457,0x026F013F,0x143D0701,
		0x19F8244E,0x2E2D2C23,0x161131DB,0x028003B6,0x1426F839,
		0x13AF078A,0x0ADD00A0,0x1B891953,0x1368160B,0xF91D0959,
		0x034CFC75,0x0B7FFD41,0xFC820687,0x0B3B0A6E,0x215424BC,
		0x128A1CAF,0x1DDB175E,0x19BD2670,0x146008D7,0x133205FF,
		0x1F0C2FF8,0x15811373,0x05BD0E4B,0x02520AF1,0xF074FCE7,
		0x07AB1091,0x132006D3,0x0ABF0A3B,0x0203141C,0xF973F6D2,
		0x11920177,0x182A2BA7,0x06921ABF,0x1F660461,0x0E1809C7,
		0x1BA41791,0x0D4E10C6,0x01A5066F,0xFD2B0131,0x08220096,
		0x0E54EE96,0x12CE0728,0x124C094F,0x0AC503D7,0x0FCFFA7D,
		0x15C50280,0x1B840CE5,0x0F9B1C4F,0x1263FD62,0xFA6214A3,
		0x08CD15F1,0xFBEB014C,0xF43BF993,0x09E8FBFB,0xF8C4FCB5,
		0x059EF60D,0x0A5704DF,0xFF60FD57,0x0E0B105B,0x0C292078,
		0x067F183F,0x023F0DD8,0xF81409DB,0x0197F152,0xF9BE0515,
		0x0143F83A,0x0090FF82,0x00360E0D,0x061F0748,0xF8E2FCB8,
		0xF299F09F,0xF9A20733,0x040900FB,0x0230F60A,0x02C7F9FC,
		0x0A84FB8A,0xFBD9FE28,0x044BF28F,0x01C80484,0x06F6F6F0,
		0x01B8F99E,0x1051FDA7,0x07E1F92C,0xFB6CF732,0xFD8F0629,
		0xF19FE9F5,0xF7B5004A,0xEE67F303,0x092CE269,0xF9630575,
		0xF83AFA4A,0xF256084B,0xF9120165,0x0ED1FAC9,0x0AAEEF81,
		0xF929FBB0,0xFA65030A,0xFBE9FF7D,0x0396FB08,0xFCBEF400,
		0x03580459,0xFF0B04CC,0xFCD7FAD9,0xFEFCFE35,0xFB9103F1,
		0xFDAFFE01,0x005FF4A0,0x0C240999,0x02030264,0x025B0700,
		0xFEF6FF95,0x03D10BFF,0x04C2041C,0xFCCEFB3B,0x04CA0448,
		0x0275FC26,0x01D2F691,0x069E0114,0xFD0F0618,0x041CFB79,
		0xF4E60890,0x0CC80986,0x0979F747,0xFD8307F3,0xFFD8007C,
		0x04F00876,0xFE9611C1,0xFB77F9AB,0xFBFE0C6C,0x0476F906,
		0xF5580021,0xFD8FF119,0xFB8C0254,0x0CBA0830,0x01F107A7,
		0x06070105,0xF920FC06,0x02AAFE61,0x036E0799,0xF8AAF0DE,
		0x00A4060F,0x11DFF8B2,0xFCAEFD7A,0x055F0D31,0x0315FE9A,
		0x0C9AF794,0xFAE504F1,0x11210D8A,0x04FE09D9,0xF7B704E3,
		0xFEB008E9,0x07C7FE97,0xFD9CFC60,0xFF5FEDE6,0x042A0150,
		0x06A8012F,0xF67C070E,0xF0E0F8D0,0xF781F10C,0xEFEBF7B9,
		0xFE4000A2,0x0140F9AD,0x066FFE99,0xFB3F06CF,0xF2E907C5,
		0xFB81ED1C,0xEF92FDEB,0xF578F62F,0x02B5034E,0xE8E2FC63,
		0xF77DF680,0xEC30F4AF,0xFC04F30C,0xFDFBED8D,0xF83DFB08,
		0x11E9FCC2,0xFDA602B8,0xF97DFCF3,0x00E10160,0xFEDA0444,
		0xEFE91719,0xF8F8FEFA,0xF4E1EFE3,0xEF37E569,0xEC00FB5C,
		0x048DFED9,0xEE95F720,0x0B8C0096,0xFDC50324,0x042DF9A2,
		0x0F050801,0x0054156F,0x011C04BE,0xF086FFEE,0xFABEFE4A,
		0xF17DF361,0xF37DED0C,0xFC81F9D8,0xF405FF32,0xF85FF574,
		0xFA97F4FD,0x02C2FE02,0x0CA7FCB1,0x00AE036D,0x10CC1F59,
		0x0C4E12DA,0x06F1F191,0x0F59F481,0xFE4AFA24,0xE3CAF5B3,
		0xFD55F992,0x06780E0F,0x00C90238,0xF2FCFC41,0x103B0C36,
		0xFCDD085C,0x054105AD,0x08850950,0x20FA140E,0x01AE1219,
		0x02D905BB,0x01ADFC8E,0xFF88F72E,0xFB25EA4A,0xFB01EDEB,
		0xFD5F0063,0xFF73FC4C,0xF0B201C0,0xF1EB016B,0x00EC09BB,
		0x000303C3,0x0A01F9C3,0x301416B2,0x0D3F25B7,0xFD8FFE46,
		0x02E303FF,0xF750FF78,0xF417E4F1,0xF116EB65,0x13071494,
		0x2FA91D95,0xE365FCE2,0xE3F8DCD5,0xED3EEB89,0xE84BE34F,
		0xF44EEFF2,0x1FF41AA3,0xFD570737,0xFD01026D,0x03BD0A5E,
		0xFC5FFD7B,0xFD52F28C,0x2875176D,0x15381361,0x23A32226,
		0xE86F183F,0xF437D9D7,0xF405E762,0xF7BAEF77,0x007EF1DF,
		0x0F550A21,0xF8100DE0,0x01E508D0,0x0F76F98D,0xEDA708A1,
		0x15E8168F,0x1D192733,0x18C813A9,0x115302E6,0xF2E017F0,
		0xEE86F178,0xFB31FCE1,0xF265F335,0x0D6F0482,0x0EA8104D,
		0xFF38FE18,0xF865037A,0x0859F424,0x0404FFEB,0x0293F80E,
		0x2293132F,0x051312FD,0x03EC0418,0xFD131966,0x009EE927,
		0xF493F86D,0x0DCB004C,0x25721D0D,0x16370DFD,0xF73706AB,
		0xFD89F194,0x07CB06FE,0xFE48F874,0x05960AC2,0x07030B80,
		0x0537048F,0x15B40717,0xEF6C1A8A,0xFEEBF93E,0x05BEF9F0,
		0x14A6FB9D,0x1B2E0EF4,0x11E90F52,0xF843FD6D,0xFA34FBD9,
		0x0130F4B7,0xFFC3F63C,0x04F4FC8F,0x0EF31592,0x0828144D,
		0x0D950F41,0x02E00D7A,0xFE03FBF1,0x011FFE91,0xFB7104D1,
		0x00E71447,0x01961628,0xF849FC54,0xF6FAFCC9,0x0770FE6F,
		0xF7B0F35C,0x0A9302F6,0xFC821592,0x02B705E3,0x17090D05,
		0xF788113C,0xF9B9EF75,0x05690084,0xFC570969,0xF96BF88A,
		0x0B76FE3F,0xFFBAFE5D,0xFA7CFBD0,0x021AFE64,0xFF31FC82,
		0xF66BF19B,0xFEE30F95,0xFFDBFEA3,0x144E0C7F,0xFF3704D1,
		0x032EF6FD,0x0699084D,0xF6AB073E,0xEC5FFB39,0xF9A803C4,
		0xEDE5071C,0xF74203A7,0x03BB0603,0xF4FDEBCA,0x08F8F813,
		0x0C500E99,0x145E0E42,0x0C780BDA,0x0E09064E,0x11CCFD85,
		0xF6550346,0xF8C107E2,0xF44A167C,0xFAFBF944,0xFF92EB61,
		0xFDC40118,0x01A40089,0xE339F725,0x05C1F35E,0xFBD4000E,
		0xFF3EFF53,0xFB7903AD,0x08A8F988,0xFD07FF25,0xFB49FB84,
		0xFF7FFAA4,0xFC03F9B1,0xF60FF0F0,0x0B6E03F1,0xFDACF217,
		0x1169077C,0xEF9F1055,0x10B711CB,0x08CB0963,0xFF890999,
		0x0B9CF3C3,0x069306ED,0x0681FA9C,0xF87704F3,0x0B18F194,
		0x03900065,0xFE0DF3AA,0x04A1FCC4,0x0534FDFA,0xF70D0672,
		0xE6B103E7,0x0711F5EB,0x038C04B2,0x060100C5,0x0A7302A4,
		0x0B4709AB,0x0348ECC8,0xF1B108B9,0xFF20FC20,0xF168E9BF,
		0xFA13F60D,0xF4F20704,0x09E9FA52,0xFD98FF35,0xF29F0427,
		0xEF74F945,0xF51EFBDC,0x04E10244,0x0DDD02A9,0x01570CBE,
		0x018000DC,0xFECFFEE5,0xFF5C01CE,0x083D020F,0xF579FB89,
		0xFD4F0071,0xF407EFD0,0x082A02EF,0xF4E0FDE9,0xFFAAFE42,
		0xF1D2EFDE,0x0800FB79,0x0C95FAFF,0xFB15041B,0xFF3AFFF2,
		0x0901F4C1,0xF831FA3B,0xFBA203BD,0x069EF949,0x0052F972,
		0xFF9F0534,0x05DD0300,0x00BE0161,0xEFB1FBA7,0xE10BF74E,
		0xF5E90181,0x083CF70F,0x0BA102B5,0xF8240C3A,0x09A509E3,
		0x0EB0F2B1,0xFDEB1115,0x02881349,0x1057FBB7,0x01E70292,
		0x0244FAF2,0x065B0700,0xFA8DFC9A,0xDFC5F532,0xF693F8BA,
		0xF44FF333,0xF9C3029D,0xF84FF3EB,0x00660819,0x0D1910C9,
		0x0941FFD5,0x100A0DB7,0x0461FC2A,0xFA730374,0xFE61F9B0,
		0x072AEFB0,0x0361FEF3,0xEE7FFA0A,0xF6CAF1BF,0xF259FC1D,
		0xF439FD39,0xFB94DEDF,0x0425EF41,0xFEE40ED7,0xFEA7F9DD,
		0x0875FB71,0xFD22F7B2,0xF87FFF21,0x02F6FB59,0x0251FD96,
		0x03BEFA14,0x0556FFA2,0xFD3BFE84,0xFE1EF9A5,0xFC11F255,
		0xFB19F618,0xFDC2EED1,0xF65A06C4,0x070604C3,0x05C8022B,
		0x0AE3FA1C,0x01FAF2DF,0xF2C408B9,0x037603EC,0x00960506,
		0xFD8E0B5C,0xEE580278,0xF6D40413,0x043C017D,0x02EFF90F,
		0x02160523,0x0B530490,0x0B9AF819,0x025CEE84,0x039C08EC,
		0xF6F5039C,0xFFA50A60,0x09400CCA,0x0B65037C,0x044AF7C9,
		0xFC19FBE8,0xF430F243,0xF536FBD2,0x0704ED73,0x054C0145,
		0xFA07045E,0x01B90D91,0xFB5C0295,0x06340880,0x06FCF0A3,
		0x0A8BFD92,0xF98B02A3,0xFD3F05B3,0xFEFEE5D0,0x016A0184,
		0x0388FED4,0xFBB00E91,0x0629FAD4,0x05CDFE66,0x0A260166,
		0xFE3D114F,0x019F02A0,0xF608FE0F,0x016BEFA5,0x003E0153,
		0x03190C97,0x0579048B,0x063D0371,0x06200878,0x015203DC,
		0x0B2C04E9,0x04B00F75,0x07FB0FEB,0x032614F4,0xFCBC04A4,
		0xFC39F9CA,0xF5DD0CFD,0x0590F574,0x001E0C48,0xF49BFD52,
		0x045FF61E,0x01C9FE39,0x05A1FE79,0x0C830D1A,0x031B0A8F,
		0x05D801AB,0x057FFAC3,0x00310BD0,0x08AF01F9,0x0AFC0AAD,
		0x07B3090D,0x011AFE26,0x1040046A,0xFA9AF5BD,0xFAD7F7E5,
		0x075DEE6A,0x0ED0FB69,0xF86E0076,0xFCC3FCC0,0xFA94042A,
		0xEB27F95B,0x02F1015A,0xFFFAF9B9,0x14C80711,0xFB95F0ED,
		0x08410EB5,0x0065FA7B,0x0940FB8B,0xFDE50143,0xF6ED0B36,
		0xFD3EFFDD,0xFE38FE85,0x0473FA18,0xF15CF2AD,0xF983F4A3,
		0xF8B4F87F,0x0134FF4D,0xFEBBF0B3,0xFFE0045A,0x060B086D,
		0x063A0246,0xF83E052A,0xF566F858,0xF8C7092C,0x0C4C08D5,
		0x03E7065D,0xFCDAF5DF,0xF348FED4,0xF210FCD1,0xF540F05E,
		0xFE4BFA91,0x07C6F979,0x09F3050B,0xFCE7074F,0x0AE1FE59,
		0xF0E8FD1F,0xF750074F,0xFD520EBA,0x09A91540,0x016D03EF,
		0xFF2A0061,0xEC0B0375,0xF6EAFCF0,0xF2EDE4C6,0xFB5302DA,
		0x0381FFBF,0x06E108A0,0x000301F7,0xFCCEFB3B,0xFE46009C,
		0x02770B77,0xFEC70AFC,0x026B1B77,0x02EDFD6E,0x0C15FFDD,
		0xFD06FA67,0xF741ED58,0xF8DFF585,0xF7A1FB0D,0xFBB407C5,
		0x07721279,0xF8560581,0x05A7039B,0x02550133,0x0EFE05EA,
		0x0A25065B,0x0ADA03DC,0x09BF0019,0xFE88FF80,0xF31807D9,
		0xE88BF4FB,0xEA03EAEA,0x0246F847,0xFA64FD26,0x0A66088E,
		0x04860645,0x07710099,0x0D08F920,0x058410A3,0x007F0992,
		0x02380F1F,0xFFCB0E1E,0x19B10D52,0x0D23098C,0xF0F806F5,
		0xF23FE021,0x01B8E95A,0xFA69EC2E,0xFB9704D0,0x05E703B3,
		0x0BD00009,0xFD1DFA80,0xF34208CB,0x06700195,0x0BEAFB38,
		0x0CB80393,0x0C521234,0x0BF70C34,0x00F02301,0xFB75F8EF,
		0xFEBEE8C4,0xFB5DEBCD,0x1196F9AA,0xFD0906EE,0x02CCFE34,
		0x02580B8E,0x0079FE17,0xFB6CF624,0x0B7DFDEE,0xEF66FAD2,
		0x043C026E,0x0B81014E,0x151C1E11,0xEBA6F3CD,0xF407FD53,
		0xEB82FABF,0xF6E1F2A5,0xF83BF6EF,0x0F17FE80,0xF9830519,
		0xF024F7E4,0xF5C7F65E,0xF661081B,0x0308FDC3,0x040E038E,
		0x15900F2F,0xFFF50FBB,0x054BF2C2,0x00CFF5C8,0xF337F413,
		0xF961F6B4,0xFE7001B7,0xFF8AF835,0x0066004D,0xFF28EA30,
		0xE907F1E6,0xFE220797,0x01170352,0x04030512,0x14EF0B2E,
		0x068C18E0,0x092FFAB9,0xEC64FD97,0xF14504E6,0xF321F85B,
		0x0E66FCFD,0xFF7B02D0,0x0A01FE30,0xEF2CEB6C,0xF35FF9AE,
		0x00E6015E,0x0883F229,0x0EB8007B,0x167F1429,0x09810AF7,
		0xF635F8FC,0xFA67F96E,0x00CD088B,0xF483F168,0x070605DB,
		0x1391FBE2,0xF907060B,0xF7C5EF20,0xF546FC45,0xF4AAF139,
		0xFF80F48B,0x17BB1128,0x1AB90C65,0xFE420649,0xFC2DF5B2,
		0xFB9AFC0E,0x0519F113,0x01E60D9F,0xF624FE06,0xFD5903EB,
		0xF76F03B7,0xED2A004E,0xF54CF933,0x045EFD07,0x077BFA60,
		0x19E61FA6,0x071F09DC,0x055F07F2,0x02670685,0x06E2FAC5,
		0x11DC087F,0x01A40849,0x05E20B5C,0x0CBA04F0,0x1464EDA2,
		0x0242F76F,0xFEC6FD32,0xF0FFFA49,0x060AEAE5,0x25BF07F6,
		0x0BCA02EE,0x025F00E1,0xFB1F0688,0x017D0762,0xF484FF5D,
		0x0B3DFDE5,0x012AFE3B,0xF6B2F44D,0x07DAFD53,0xF874FF1C,
		0xF4ECF08B,0xFDD7066F,0x05C5F0CE,0x097EFF23,0x0CABFEDB,
		0x0B161091,0x023106A7,0xF6DE01B9,0x02AEFEC5,0x075203E2,
		0xF42D036F,0x0D970708,0x0086FF01,0x04D8018E,0x0224FDB4,
		0x03680417,0x01E6FE0C,0x0B58096A,0x0AD81335,0x14B6FDF5,
		0x0347044A,0x042AFD7A,0x1436044D,0x03570232,0xFAB9058A,
		0x02C005A8,0x094E05E1,0xF07A046D,0x042CE6B0,0x0F27073C,
		0xFEFEFF4C,0xF8D00569,0xF46B01BB,0x106B0C5F,0x04580A2A,
		0x0AB6F079,0x041D008A,0x069CFF20,0xFABA0A38,0xF6D2FC70,
		0xFFAD035B,0x043003FA,0x04A30B84,0x049A0824,0x0A04F50E,
		0x0821F4A9,0xFFE5F975,0x05FB03D5,0x013BFEE9,0xFEC20B7C,
		0x0406FE54,0xFC5200F0,0x0B26F8B3,0x0DA9046F,0xF12FF807,
		0x0AFD0FD7,0x16190F73,0xF928F892,0x0559FB85,0xF84909BD,
		0x0E0C08F6,0x0267F7B7,0x13E1038E,0xF825E943,0xEBBC10E0,
		0x037FF875,0x0477045B,0xFEE5FDEE,0xF9F402AD,0xFF4311D2,
		0x0E0B02CA,0xF9C6084C,0x0AB8124B,0xFA350AB9,0xFF38FEE4,
		0xF9170D33,0xFB9C0898,0x0381F8DA,0x08C30300,0x02530317,
		0x07870B00,0x04ED0C15,0x03DC059A,0x0471FE18,0xFCDFF6E1,
		0x0EB1FE2D,0x0EC01527,0x14480F5C,0x029C0D3F,0x00E803C6,
		0xF8E8FA13,0xFE33F9AE,0xF6E9FA4C,0xF46709CD,0x0123F5FF,
		0x000C186F,0xF3A2FC9A,0x066FF6F2,0x03BA1A49,0x092E0F75,
		0xFC27049F,0xFE591324,0x0E390BCE,0xFCF9FB92,0x01DE03B7,
		0xF99603AD,0x0273FC68,0x00F403E6,0x00CDFDE4,0x00E817C5,
		0x0A22F4DF,0x0281028C,0x00BCFC5F,0x0631F5F8,0xF06E08A1,
		0x05DEFD0B,0xFC820E1C,0x0180FF50,0xFB65FBA4,0xE931FF60,
		0xFD570263,0x00BDF6E7,0x08D5059A,0x0573FD2D,0xF0F909A6,
		0xF7D3FF44,0x0A5407FA,0x0C89F729,0x009AF48F,0x12DC013A,
		0x078BFCBF,0xFCE2FC41,0x00520059,0x05D0FF13,0x0532F672,
		0x07880A5B,0xED32F8D8,0x04ECF56F,0x08CC0650,0xEF79FF2F,
		0xFE10FF38,0x0351F402,0xF29C0887,0x0325F6B8,0x02B4F3CF,
		0x08F004FF,0x058401FB,0x05D2FED5,0x04DA0466,0x0202F6AD,
		0x00B2F8A1,0x04FDFBB7,0xFFEDFF06,0x0369F7A4,0x00DEF9D6,
		0x06830495,0xFD56FCAB,0xFB9DFAD2,0x04C201F6,0x0080F3FB,
		0xFDB0F839,0x02FDF0DE,0xF9E204F6,0x01B3FC17,0x0C8DFFA4,
		0x068C0BDF,0x10940E88,0xF45B032D,0x01970C0F,0x10CFFDB3,
		0x044600A3,0x089F048F,0x05BBF971,0xECDDF7AB,0xDF91FF5D,
		0xF807F547,0xF9E4FD8B,0x066CFC88,0x0677F2C7,0xF899071C,
		0xFF9D0167,0x025CF420,0x0A97F55A,0x0CEA1106,0x0A830EB5,
		0xFDEE069F,0xFB0EFD55,0x008CFA44,0x01A6FE30,0xFFC1EC8B,
		0xF5CFFC5F,0x004B0044,0x03EF0807,0xEF520212,0x014C02C2,
		0xFD50189C,0x0F870280,0x1B3C08A4,0x05AE0CD6,0xFF58F9C3,
		0xFF1D0319,0x12DD02D0,0x026912A0,0xFAB9FBB7,0xF151F7DE,
		0x074600F0,0xF65BFAF1,0x000FF73C,0x0425F86C,0x079A0EBB,
		0x0CE0FC3F,0x18340827,0xFD7A14E0,0x08420407,0xF89FEDCA,
		0xFEF8043D,0x04D60F50,0xFC48F816,0x05E6F847,0x0982FA99,
		0x00970877,0xFE0C0727,0xFD1D061C,0x1186006F,0x00920C21,
		0x0C8E106C,0xFFD0FF8C,0x0890F479,0xFF61087C,0x095502E8,
		0x06950332,0x0F5603F2,0xEFC9FEE7,0xF8550494,0x0ADBFCC3,
		0xF9B0FF4F,0x0006055C,0x08BA09CB,0x0961064C,0x12A812E2,
		0x0FFF13C2,0xFC11055C,0xF664FFF0,0x05070880,0xF8C00585,
		0xF9EA09D1,0xFFD807F6,0xFB5DECBB,0x0E4DF438,0xF50FFBA6,
		0x07E9041C,0x0F160271,0x0C210818,0x0C090BB4,0xF8A905B1,
		0xF99F0C25,0x0B2D1159,0xFF900C05,0x06BF0C5B,0x12E9FA82,
		0xFAC00675,0x00070165,0x0C8E0CED,0xFF4FF652,0x02AB0458,
		0xFBAA165F,0x086EF224,0x113F0AB5,0x063B145B,0x24CB06CF,
		0x165313E1,0x146912E0,0x01A208B6,0x0B5D02E4,0x002E02BC,
		0x0565FD08,0x09B6FF26,0xFDEDFE51,0xFEF504C9,0xF1EF0680,
		0xE98DFA86,0xFB00E057,0xFB2AFDEF,0x0B700D0E,0x07D1080D,
		0x0E63FF5C,0x06E90515,0x048004EA,0xF625FC28,0xF058FBC0,
		0xFE6DFB51,0xFB54F9C6,0xFD3D016F,0xE888FF68,0x0007F1FC,
		0xFAEAF7E8,0xF1E7F930,0xE968F96A,0xFF24CC64,0xE739FC33,
		0xEF2EFCCF,0xEE81E5D1,0xE37CF5F4,0xFBFAF9ED,0xF6B0FBC0,
		0xFCFDFA76,0xFFC5070F,0xF3F7F95F,0xEFB0F5F1,0xEF42F4D5,
		0xF0DEEF60,0xD39BD777,0xF342E2E9,0x0029F801,0xEEA3F354,
		0xE9C8F1B0,0xF8DBF60D,0xF50BF804,0xF9FAFE6D,0x0152019B,
		0x0A54F90B,0xFB2AFE45,0xF9CBFE5C,0xFD89F357,0xF192F9C9,
		0xE3CDE292,0xFD46F83F,0x0061F9BA,0x00310AA9,0xF94008F2,
		0x03630162,0xFDB417FE,0x0455F96B,0xF245050E,0x0A71F173,
		0x0234FA7E,0xE8CFFAE3,0xE6FFF33E,0xF46FFBED,0xDE3BE942,
		0xF44CEF61,0xF446E52B,0x1102FBC7,0x0E281D68,0x07730D60,
		0x0A6D0E03,0xF15A03C3,0x076FF3E6,0xFF04024F,0x03D7F77D,
		0x004606F3,0xF202050E,0xEC55E95E,0xEAD8F1EC,0xF624F3E1,
		0xFF0EFD7E,0x139F0B94,0x14DD1E2D,0x0620086B,0xFFD709A9,
		0xFB7D0193,0xF6F3FB5A,0xFABDF223,0x0B4610F4,0x052A0274,
		0xFD51F837,0xF29AF174,0xE446E8F5,0x0190F454,0x113B017E,
		0x08F50A26,0x004EFE1A,0x113205C1,0xFD2E0457,0xFBDCF825,
		0xFD92FF4B,0xFD8AFF1D,0x0C860966,0x0989180B,0xF571FF1E,
		0xE702FDD2,0xF0ADF0CD,0x00E10560,0x08AC0988,0x0593F824,
		0x04F905D6,0x03A309FC,0x0BEA03A7,0x00D50BD6,0x0B22EC84,
		0xFFE5ED2D,0xF7F310EC,0x17680EFB,0x06640CCE,0x12830722,
		0x17B30D33,0x054A19D7,0xF71505DF,0xF411F832,0x09140A8A,
		0xFE890936,0x058BF2BF,0x0DFAF93E,0xFB400612,0xF8C00798,
		0xFCBE04B4,0x0CCE1380,0x18281919,0x23DB210C,0xF9F81DAA,
		0x087E1256,0xF398EAD8,0x0284F60C,0x041EF996,0x0D3E0734,
		0xF87405E2,0x00AAFE86,0x02C60246,0xFC490345,0xFE7102FA,
		0x0A33FD20,0x0F9E0C24,0x035807A2,0x0BDA145D,0x0D5A05E4,
		0xFFE905CB,0xF9AAFAA2,0x0F030912,0xFC7FF044,0x05F5009B,
		0x01BBFE82,0x04AD030B,0x0263FA6C,0x0BD3FE7C,0xED91FBBF,
		0xF9D0F2B9,0xFC60F871,0xFD3F0190,0x0445F866,0x03D70191,
		0xFA56054F,0xF70DF2B1,0x023A015A,0x002AFE44,0xFE4AF8D3,
		0x0799F805,0xFD860ED9,0x0B4701BC,0x04D401F6,0x01D7F870,
		0x079FF5B9,0xF800FD04,0x0F4B01B3,0xF754040E,0xFD0A0125,
		0xF061EB80,0xEC21F7C5,0xF6D0F31E,0xFA5606B2,0xFF92F4BB,
		0x0AF203F9,0x0E6A056F,0xFF590444,0xF107FCEE,0xFCD90589,
		0x0D7FF64D,0xFD17010D,0x06E20785,0xEED601D9,0xEE500981,
		0xF1D1F53E,0x02DCECDE,0x06FBFE07,0xFFAF0454,0x01970A51,
		0x03C90296,0x0BC5F070,0x0BF20566,0x0506F7D7,0xFA0E0E2D,
		0x0987FFFC,0xFF1BFAFC,0xF65CF7AF,0xF10EF272,0xF909FF74,
		0x044FFA14,0x06EE0A27,0xFCDA0299,0x0F170069,0xF92AFA88,
		0x01400012,0x0285FCA3,0x04E0FBA5,0xF810F840,0x004BFB6A,
		0xF8D1FF03,0xFBB61354,0x0569003D,0xF947000E,0xFE54F561,
		0xF6DEF7E0,0x0030FCA6,0xF5FD01AD,0xFF9E0E50,0xF0610D34,
		0x001D03BF,0xFDB7FECF,0xF8AC0535,0xF8990DDF,0xFDFE03B4,
		0x06C5EF62,0x00BF063D,0xFEFDF4B0,0xFCFF0599,0xEAB50C62,
		0xF659000A,0xFBBEFF49,0xFA17FC96,0x0C0BFDD6,0xF875F829,
		0xFA1FF839,0x063E0421,0xFEF4FC5C,0x02E201AE,0xFD36FFFA,
		0x0069024D,0x02A7FCDD,0x008D059F,0xFC060586,0xF637FAD3,
		0xEC510693,0x08920304,0x0FF7FDC7,0xF3B1F012,0xFEB0F30A,
		0x08B004E0,0xF767FB9D,0xF418F917,0x0509052D,0x06BF0E5B,
		0xFD42F7A3,0x04A20723,0xFFC3FD3A,0xFD3B06D0,0x05D605D9,
		0x03D5F4FE,0x08ACFC64,0xF56EF083,0xF71C014B,0x06ADF8B5,
		0xFA9CF2D2,0x0392E706,0xFF310387,0xFE2DFD42,0xF98EFEBC,
		0xF764FEF9,0x0250F9ED,0x0355052A,0xF4360442,0x0D140108,
		0x040D118B,0x0CF201E6,0x026A0CC0,0x09731488,0xFE7F15F8,
		0x137317C4,0x1A1E0B6C,0x03D907C8,0xF8570E91,0x0CCDFFDA,
		0x050E0634,0x0387F634,0x042B0AD8,0x05AAFC7C,0xFB0DFD91,
		0x0B16FEE8,0x07800B44,0xF8F2F2FE,0xFBC3F77E,0xFDCA06E0,
		0x0D92F718,0x05B20E1D,0x13410964,0xFC2E0B93,0x07B908C2,
		0x051E06BD,0xFD7B00F7,0x0352FB1A,0xFB63FEE7,0x067A04E2,
		0xFB7003A7,0xDA44F3E7,0xFD88E77A,0x05250D6E,0xEE9BEDAC,
		0x02750373,0x137D0B09,0xFB731C78,0xFAE10480,0xF65B0F3F,
		0x08470965,0x0C44FFBB,0x08230356,0xF970067A,0xF6DAE6F8,
		0xDFB7D749,0xD2D0D469,0xD5DBD743,0xDF15E1AA,0xF0E70731,
		0x16CF06DE,0xFA68FF32,0xFE870942,0xF50E0663,0xF685015A,
		0x0696F92B,0xFE3F0249,0xF0790931,0xE8DDE442,0xD981D3FB,
		0xB830B74E,0xE4FEC042,0xFC69E4F5,0xFF86F5AD,0x0ED20BF6,
		0x0ACF077C,0xFDA7F356,0x002AF200,0xFC1F07B4,0x033E067F,
		0x07CB019F,0xF72AEF42,0xF58EFF7A,0xD171E6B3,0xCF97C608,
		0xF9BAD916,0xFE9705DE,0x001709A5,0xFB3D0A8B,0x0922098E,
		0x08C6028B,0x0A4AF7EE,0x0B4705E3,0x060B1018,0xFA5C07C3,
		0xF175F602,0xFFE8E64B,0xFF66F7E7,0xF251E519,0xFF100ADA,
		0x00B4FD5C,0x06D6FD95,0xF54A053D,0xF5F6F9E3,0xFBA90E4F,
		0x0DFEF509,0x012DFD85,0x0BC10D62,0xFADCF0E0,0x0F7D083A,
		0x058A020E,0x0B7A0F73,0x26CB1E85,0x163017A7,0xEE2BFE0A,
		0xF266039E,0xED060A09,0xFC4EE1B2,0x07450286,0x01AE0045,
		0x07A0028B,0xED99FBC0,0xF8D8EF6F,0x16D50B83,0x0E021249,
		0x19B01D17,0xFCEE03AB,0xEDB000B5,0xFEF9F2BD,0xF95CF21E,
		0xF46C003C,0x0503F899,0xFA53FC73,0xF78A023C,0x1349FE20,
		0xF4F2F5C2,0xFE14FDA4,0x0E550FC4,0x19F80CE8,0x191818C6,
		0xFAE9F185,0xE4CB0203,0xF9BA0744,0xEB6AFF5B,0xF9CA06CB,
		0x00C4F1F2,0xFD9808EE,0x00F6FBC3,0xFE69FE30,0xF75E0B7A,
		0x0D6B06F4,0x172B0D02,0x1B4414DE,0x00B91808,0x0099EE95,
		0x0561FF2D,0x0890FF7A,0x0F5100E9,0x0A64FC3D,0x00A5F27B,
		0x07AB0189,0x01500030,0x07180A55,0xF7490F85,0x195E1663,
		0x14060D16,0x2122118C,0x07A8218A,0xF81BF21F,0x07CAFCC4,
		0x064CFF93,0x0E9600B4,0x0AB70BDB,0x00C71047,0xF460F7A7,
		0x03A80D46,0x0832F996,0x092C0BF4,0x0BC105CC,0x246F0BDD,
		0x0CDE050C,0x07940959,0x09B306DD,0x159D1854,0x1034FD4C,
		0x169010F1,0x0B0E1AB4,0x05E40B48,0xFB81F969,0xF7BF1119,
		0x08210716,0x0203F8DF,0x0EAB0082,0x073E0569,0x0333FAA4,
		0x184FFD30,0x1C690E4F,0x0FCD1BDF,0x0E5A1FEF,0x12781244,
		0x08FA1359,0x019F04CB,0xFE1E094D,0xFD46F9E8,0xFA05F6CA,
		0x05DEF972,0x13B41B24,0x07A2FD0B,0x0403F345,0x024902D7,
		0x0AE20F7F,0x0C420B27,0xFBD4088E,0x0CE009DF,0xF9D60C1A,
		0x075D0647,0xF5A5F4C2,0x07A0FB7F,0x06BFFB63,0x079BFE3E,
		0x087C139C,0xFA5E042B,0xF4D8F780,0x0F6405D7,0x172011D7,
		0x0BF52803,0xF9D304F1,0x047CFF8C,0x109B02E1,0x00E018C9,
		0xFAF2F38B,0xFFD10BC2,0xEFF20180,0x02F40223,0x1847072C,
		0xFD390090,0x1157FBB9,0x0E4DFFA9,0x1E830D5C,0x13100C23,
		0x0605023C,0xF3E8ECD1,0x0336FDC1,0xF9E80130,0x06240174,
		0x01D7FF13,0x02E10036,0xFF6B084E,0xFC5608E6,0xFE8C0FD1,
		0x05E108D4,0x01AE0FE3,0x0467098F,0x0A5B168E,0xF8020E02,
		0xE475ED6F,0x05F3E6B3,0x042EF8FB,0x03B20D28,0x0DB4E917,
		0xF2BFFAB5,0x02830273,0x07A80660,0x00B7FB23,0x0E12018B,
		0x0E6503FE,0xE00CFE02,0xF436F8BE,0xFFB3019C,0xF201F879,
		0xF596F650,0x0691075B,0x0B60F863,0xEFC700C6,0x008AF63F,
		0x0959F1D4,0xF8570395,0xF93DF3A6,0xEDE4F5CD,0xEE44DE46,
		0xEADED852,0xF781E515,0x0B2CF727,0x0F6FFE90,0xF296F95B,
		0xFE790717,0xFF050168,0x0EBCFD41,0xF804FD9F,0xFC7FF679,
		0xF3CAEE2B,0xF81BE3F5,0xF0E8F5BE,0xEC6DF8D9,0xEBB7EA8F,
		0xEC2FF090,0xF04DF66C,0xF963F921,0xF7BEF248,0x00BAFCC8,
		0xF3ED0122,0x002908F6,0xFE65FE4F,0xF7030983,0xEC900E8A,
		0x0535F393,0xF80DF45C,0x026FF733,0x0C07F67B,0xF4A3FFC9,
		0xFDB5F2C9,0x0800F1C5,0xFE41034E,0xEE8006E3,0xFC0E0139,
		0x0754FE6E,0xFC4D07DD,0xFFBA071B,0x02E1FE4F,0xFBC0F152,
		0xE141F502,0xEFB1E26A,0xE0A9ED58,0xDFA7F061,0xEA28F49F,
		0xF4CDF11F,0x0338F8AF,0x06A40446,0x03E7070C,0x0D261426,
		0xEFCA0458,0x057A079D,0xFD16FEBB,0xF728FA48,0xF6C1F912,
		0xF883F28D,0xF325DF75,0xE867F968,0xF2F7F257,0xF538F447,
		0x05E0F5AE,0xF0D2FEB2,0x0ED5055B,0xFEE2F520,0xFC3A032C,
		0xF2E301E4,0x03A20B92,0xF02400A1,0x1003FA9E,0x0B9A036B,
		0x0678FA1F,0xFC4802D5,0x004B091E,0x02A408BC,0xF70E0DA8,
		0x02DD0E67,0xFBBC02C1,0xFA6510CA,0xEB86131D,0x19071612,
		0x0904D409,0x064AAD5B,0xF71BFE39,0xDE962020,0xFA42049E,
		0x0A7DC3E7,0x15FE1423,0x0AEB12A8,0x0788F336,0x589ADC66,
		0x1D73FE5C,0x15F6F1D6,0xFA1ED6CD,0x11560325,0x16A6FABB,
		0xEE2FCA45,0xD4D60C4A,0x22B103D3,0x106F08E3,0x0A3E0840,
		0x2EDE0264,0xF94703F5,0x1FB6E83F,0x0E4FCFAC,0xCC70170C,
		0xDAC8000C,0xFC48FD5B,0xFA230C48,0x3B03F456,0xDBF73EDC,
		0x14120E64,0xDC57DF1D,0xFF900DFA,0xEDF4F0FC,0x2087C0CF,
		0xD81416DC,0xF8A6FC81,0x0F9C2102,0x0732EFA7,0x058F0A62,
		0xE85BE833,0x2CDCE5E5,0xE5492127,0x1D2E006D,0x0468FD3F,
		0x43A6EFD9,0xED0EE528,0x094DFE47,0x06672072,0x2291ED64,
		0xE6302375,0xF0181A2F,0x0CCFFE64,0xF326FAE3,0x0595CAC9,
		0x2C482C71,0xFD52EA3F,0xD805ED63,0xBCB032DA,0xFD8506F5,
		0xF98203C6,0x0CF7EF16,0x04C40503,0xF967F20E,0x0489F81A,
		0x0E3900CA,0xF9EFFA34,0x01D7095B,0xF964F3B0,0xDF943569,
		0x1E24C58B,0xDEC4E3E5,0x1381EE38,0xFEF9F11F,0x08D31921,
		0x036AF581,0xF31DDEB8,0xFB96D2A4,0x173FF975,0x3AF20760,
		0x2778E8E1,0xF9243C9E,0x1A4003C6,0x0E83ED2D,0xF52A0B15,
		0xFEC60609,0x11630D47,0x05A50315,0x024D09A1,0x0505F3EF,
		0x008E07F1,0x0E750488,0x000D0AC6,0x23FC013B,0xBBC2FE55,
		0xF92EF3F6,0x122CF15C,0xEDEC1C97,0x1321FAAB,0x2192FAC4,
		0xFFB5260A,0xE952DC1D,0x2188FFC7,0x001D0A1F,0x08A71112,
		0xCD60378B,0xE45D0524,0xF7C6CFF8,0x046405BF,0x16560B60,
		0xF4D0C7B1,0xE7C60D6D,0x0BA00C30,0x0AD201A1,0x12D31997,
		0xD3F3F608,0xF5D21094,0xFC1ED8F7,0x22E32B55,0x017642F0,
		0xE1170FDC,0x100FDE51,0x1343E11B,0xEE360D8E,0x0691DC90,
		0xE0840F91,0xE5F6F803,0xE59918C9,0xE91618E5,0xF8F806D3,
		0xDFB0F57B,0xE7570468,0x11B817CE,0x1C9DDD80,0xDFA30E7B,
		0x0946D537,0xD8580925,0x328DFB8F,0xD39F0AE4,0x0476EEA0,
		0xF4201FB5,0xE4FBF2D9,0x21820654,0xE8D21EDD,0xF6DBF584,
		0x0D6DFD03,0xE4ED3BEF,0x00A5F6BD,0xE2F0ECD6,0x1E30E6F0,
		0xEB31FBCC,0xF70FFB90,0xE394EA89,0xD5BFF95B,0xE81EFC07,
		0x1D3F05D6,0x252704AD,0xFC6C0A95,0x2A3019F6,0x0B9AEF53,
		0x1C4FFD93,0xEF7BF74B,0xBDA418C3,0xF694E7DA,0x1CADFAEE,
		0x1AA3134B,0xF0EC0D3D,0x0B06ECE0,0xC99419D7,0xD3A61352,
		0xD93D1B4B,0xD993109A,0xFF17E05C,0xF2EBDD2B,0x0578141F,
		0x15F21920,0xEA160F8E,0xF9BF0782,0xE9DBD68D,0xF196F8D7,
		0x100FD2F8,0xDC9FF6FB,0xEF49E8C7,0x0EF4E22E,0x26ACEBB8,
		0x03DCF638,0xFB78DD20,0xFA1123BE,0xEE25F349,0x0BC51099,
		0xEE17F2A2,0x11F31FDB,0xDD8DDA07,0x13F406E1,0xD3E1052B,
		0xF3E3F2BE,0x1930DED0,0x180A2524,0xD35CD77B,0xED4FEE3D,
		0x31371519,0xF890FA4C,0xE376F945,0x01E3D540,0xF558FCBD};


#endif /* SRC_MLP_COEFFICIENTS_H_ */
